{
  "vocab": {
    "T": 0,
    "H": 1,
    "I": 2,
    "S": 3,
    ":": 4,
    "</w>": 5,
    "A": 6,
    "h": 7,
    ",": 8,
    "t": 9,
    "a": 10,
    "c": 11,
    "o": 12,
    "n": 13,
    "e": 14,
    "x": 15,
    "g": 16,
    "s": 17,
    "w": 18,
    "l": 19,
    "p": 20,
    "i": 21,
    "u": 22,
    "r": 23,
    "!": 24,
    "f": 25,
    "*": 26,
    "y": 27,
    "d": 28,
    "\"": 29,
    "v": 30,
    "b": 31,
    "m": 32,
    "'": 33,
    "j": 34,
    "-": 35,
    "—": 36,
    ".": 37,
    "L": 38,
    "k": 39,
    "Y": 40,
    "(": 41,
    "V": 42,
    "K": 43,
    "G": 44,
    ")": 45,
    "W": 46,
    ";": 47,
    "q": 48,
    "#": 49,
    "1": 50,
    "O": 51,
    "M": 52,
    "D": 53,
    "R": 54,
    "E": 55,
    "2": 56,
    "F": 57,
    "B": 58,
    "C": 59,
    "3": 60,
    "P": 61,
    "$": 62,
    "=": 63,
    "\\": 64,
    "+": 65,
    "Q": 66,
    "/": 67,
    "z": 68,
    "N": 69,
    "?": 70,
    "&": 71,
    "0": 72,
    "`": 73,
    "_": 74,
    "U": 75,
    "4": 76,
    "α": 77,
    "β": 78,
    "γ": 79,
    "δ": 80,
    "8": 81,
    "7": 82,
    "9": 83,
    "5": 84,
    "X": 85,
    "%": 86,
    "’": 87,
    "Z": 88,
    "J": 89,
    "6": 90,
    "[": 91,
    "]": 92,
    ">": 93,
    "{": 94,
    "}": 95,
    "<": 96,
    "|": 97,
    "→": 98,
    "😄": 99,
    "├": 100,
    "─": 101,
    "│": 102,
    "└": 103,
    "↓": 104,
    "️": 105,
    "⃣": 106,
    "“": 107,
    "”": 108,
    "•": 109,
    "≤": 110,
    "−": 111,
    "–": 112,
    "^": 113,
    "●": 114,
    "@": 115,
    "·": 116,
    "~": 117,
    "e</w>": 118,
    "s</w>": 119,
    "in": 120,
    "th": 121,
    "en": 122,
    "er": 123,
    "t</w>": 124,
    "al": 125,
    "on": 126,
    "or": 127,
    "ti": 128,
    "an": 129,
    "d</w>": 130,
    ",</w>": 131,
    ".</w>": 132,
    "y</w>": 133,
    "the</w>": 134,
    "ra": 135,
    "ar": 136,
    "ing": 137,
    "es": 138,
    "te": 139,
    "to": 140,
    "re": 141,
    "ch": 142,
    "ing</w>": 143,
    "se": 144,
    "==": 145,
    "ur": 146,
    "tion": 147,
    "a</w>": 148,
    "it": 149,
    ":</w>": 150,
    "od": 151,
    "al</w>": 152,
    "st": 153,
    "**": 154,
    "om": 155,
    "is</w>": 156,
    "at": 157,
    "ct": 158,
    "f</w>": 159,
    ")</w>": 160,
    "Th": 161,
    "es</w>": 162,
    "ou": 163,
    "to</w>": 164,
    "ri": 165,
    "ly</w>": 166,
    "--": 167,
    "ph": 168,
    "or</w>": 169,
    "si": 170,
    "ea": 171,
    "ac": 172,
    "lo": 173,
    "and</w>": 174,
    "tic": 175,
    "le": 176,
    "er</w>": 177,
    "ma": 178,
    "li": 179,
    "et": 180,
    "enc": 181,
    "con": 182,
    "of</w>": 183,
    "gra": 184,
    "pr": 185,
    "as": 186,
    "ent": 187,
    "arch": 188,
    "====": 189,
    "tion</w>": 190,
    "#</w>": 191,
    "gh": 192,
    "ed</w>": 193,
    "ex": 194,
    "il": 195,
    "un": 196,
    "ev": 197,
    "``": 198,
    "sc": 199,
    "ow": 200,
    "nod": 201,
    "*</w>": 202,
    "The</w>": 203,
    "-</w>": 204,
    "di": 205,
    "m</w>": 206,
    "ag": 207,
    "com": 208,
    "ith": 209,
    "=</w>": 210,
    "ver": 211,
    "on</w>": 212,
    "ic": 213,
    "in</w>": 214,
    "ed": 215,
    "id": 216,
    "ru": 217,
    "ec": 218,
    "k</w>": 219,
    "at</w>": 220,
    "ken": 221,
    "la": 222,
    "ity</w>": 223,
    "man": 224,
    "tic</w>": 225,
    "igh": 226,
    "ctur": 227,
    "tra": 228,
    "is": 229,
    "token": 230,
    "Gra": 231,
    "graph": 232,
    "scor": 233,
    "us": 234,
    "for</w>": 235,
    "qu": 236,
    "mp": 237,
    "arch</w>": 238,
    "ent</w>": 239,
    "---</w>": 240,
    "with": 241,
    "ol": 242,
    "it</w>": 243,
    "ul": 244,
    "iz": 245,
    "`</w>": 246,
    "**</w>": 247,
    "tex": 248,
    "op": 249,
    "ne": 250,
    "our": 251,
    "l</w>": 252,
    "sed</w>": 253,
    "ructur": 254,
    "en</w>": 255,
    "an</w>": 256,
    "ab": 257,
    "as</w>": 258,
    "ve</w>": 259,
    "ces": 260,
    "RA": 261,
    "..": 262,
    "hea": 263,
    "\"</w>": 264,
    "ence</w>": 265,
    "os": 266,
    "tt": 267,
    "wh": 268,
    "02": 269,
    "our</w>": 270,
    "ste": 271,
    "ach": 272,
    "ve": 273,
    "```</w>": 274,
    "ted</w>": 275,
    "de": 276,
    "========": 277,
    "ou</w>": 278,
    "ode": 279,
    "p</w>": 280,
    "LL": 281,
    "M</w>": 282,
    "wal": 283,
    "202": 284,
    "ally</w>": 285,
    "le</w>": 286,
    "ps": 287,
    "omp": 288,
    "em": 289,
    "2026": 290,
    "In": 291,
    "int": 292,
    "dat": 293,
    "vi": 294,
    "the": 295,
    "Graph": 296,
    "ation": 297,
    "su": 298,
    "o</w>": 299,
    "ation</w>": 300,
    "cessed</w>": 301,
    "am": 302,
    "ity": 303,
    "8,</w>": 304,
    "text</w>": 305,
    "ructural</w>": 306,
    "accessed</w>": 307,
    "March</w>": 308,
    "2026,</w>": 309,
    "htt": 310,
    "https": 311,
    "https:": 312,
    "https:/": 313,
    "https://": 314,
    "for": 315,
    "cal": 316,
    "dg": 317,
    "lu": 318,
    "with</w>": 319,
    "0.": 320,
    "This</w>": 321,
    "idence</w>": 322,
    "graph</w>": 323,
    "$</w>": 324,
    "sel": 325,
    "log": 326,
    "mantic</w>": 327,
    "walk": 328,
    "min": 329,
    "sy": 330,
    "ut": 331,
    "node</w>": 332,
    "pro": 333,
    "that</w>": 334,
    "ate</w>": 335,
    "s,</w>": 336,
    "im": 337,
    "if": 338,
    "St": 339,
    "Wh": 340,
    "n</w>": 341,
    "e.</w>": 342,
    "comp": 343,
    "and": 344,
    "yth": 345,
    "Sea": 346,
    "ind": 347,
    "AI": 348,
    "s.</w>": 349,
    "ter": 350,
    "pp": 351,
    "grav": 352,
    "ow</w>": 353,
    "LLM</w>": 354,
    "aliz": 355,
    "vers": 356,
    "um": 357,
    "sion</w>": 358,
    "ction</w>": 359,
    "self": 360,
    "promp": 361,
    "are</w>": 362,
    "bu": 363,
    "fr": 364,
    "S</w>": 365,
    "+</w>": 366,
    "0</w>": 367,
    "ore</w>": 368,
    "you</w>": 369,
    "enti": 370,
    "wor": 371,
    "do": 372,
    "your</w>": 373,
    "syste": 374,
    "unk": 375,
    "KV": 376,
    "RAG": 377,
    "tes</w>": 378,
    "per": 379,
    "high": 380,
    "has": 381,
    "oun": 382,
    "Se": 383,
    "x</w>": 384,
    "om</w>": 385,
    "ad": 386,
    "e_": 387,
    "y.</w>": 388,
    "we": 389,
    "anc": 390,
    "Pyth": 391,
    "vect": 392,
    "Ex": 393,
    "Ma": 394,
    "e-": 395,
    "evidence</w>": 396,
    "act": 397,
    "po": 398,
    "fin": 399,
    "imp": 400,
    "cur": 401,
    "ff": 402,
    "structural</w>": 403,
    "this</w>": 404,
    "bet": 405,
    "ite": 406,
    "KV</w>": 407,
    "res": 408,
    "travers": 409,
    "into</w>": 410,
    "work": 411,
    "></w>": 412,
    "self.": 413,
    "sp": 414,
    "now": 415,
    "ret": 416,
    "ction": 417,
    "istic</w>": 418,
    "quer": 419,
    "exp": 420,
    "1</w>": 421,
    ".com": 422,
    ".com/": 423,
    "'s</w>": 424,
    "ha": 425,
    "1.</w>": 426,
    "2.</w>": 427,
    "from</w>": 428,
    "curr": 429,
    "riev": 430,
    "ode</w>": 431,
    "emor": 432,
    "ine</w>": 433,
    "**.</w>": 434,
    "orm": 435,
    "sh": 436,
    "ba": 437,
    "y,</w>": 438,
    "ener": 439,
    "cach": 440,
    "ormaliz": 441,
    "_scor": 442,
    "context</w>": 443,
    "ere</w>": 444,
    "s:</w>": 445,
    "e,</w>": 446,
    "Seam</w>": 447,
    "→</w>": 448,
    "ww": 449,
    "ran": 450,
    "ir": 451,
    "nodes</w>": 452,
    "It</w>": 453,
    "ough": 454,
    "ighb": 455,
    "Grav": 456,
    ").</w>": 457,
    "A</w>": 458,
    "/</w>": 459,
    "et</w>": 460,
    "ilar": 461,
    "ack": 462,
    "age": 463,
    "2</w>": 464,
    "est</w>": 465,
    "lay": 466,
    "dge</w>": 467,
    "lev": 468,
    "ch</w>": 469,
    "ens": 470,
    "neighb": 471,
    "3.</w>": 472,
    "semantic</w>": 473,
    "ession</w>": 474,
    "int</w>": 475,
    "ent_": 476,
    "eter": 477,
    "hash": 478,
    "str": 479,
    "arra": 480,
    "================": 481,
    "walker</w>": 482,
    "matic": 483,
    "es,</w>": 484,
    "be": 485,
    "sion": 486,
    "low": 487,
    "Python</w>": 488,
    "fa": 489,
    "Sc": 490,
    "tu": 491,
    "can</w>": 492,
    "fer": 493,
    "prompt": 494,
    "par": 495,
    "##</w>": 496,
    "me": 497,
    "ard</w>": 498,
    "archite": 499,
    "edd": 500,
    "reas": 501,
    "....": 502,
    "ep": 503,
    "over": 504,
    "ds</w>": 505,
    "nowle": 506,
    "ig": 507,
    "E</w>": 508,
    "thes": 509,
    "es.</w>": 510,
    "edg": 511,
    "logic": 512,
    "fun": 513,
    "Session</w>": 514,
    "yp": 515,
    "fil": 516,
    "ici": 517,
    "np": 518,
    "thematic": 519,
    "nowledge</w>": 520,
    "relev": 521,
    "its</w>": 522,
    "seam": 523,
    "system</w>": 524,
    "mode": 525,
    ":**</w>": 526,
    "const": 527,
    "etermin": 528,
    "tokens</w>": 529,
    "\"\"": 530,
    "np.": 531,
    "Ran": 532,
    "pri": 533,
    "If</w>": 534,
    "out</w>": 535,
    "hunk": 536,
    "data</w>": 537,
    "Hea": 538,
    "eur": 539,
    "reason": 540,
    "tual</w>": 541,
    "ence": 542,
    "ust</w>": 543,
    "ting</w>": 544,
    "mathematic": 545,
    "tim": 546,
    "etwork": 547,
    "Dat": 548,
    "no": 549,
    "cont": 550,
    "use</w>": 551,
    "gor": 552,
    "iv": 553,
    "tive</w>": 554,
    "ct</w>": 555,
    "Node</w>": 556,
    "emb": 557,
    "lik": 558,
    "men": 559,
    "ffici": 560,
    "normaliz": 561,
    "max": 562,
    "calc": 563,
    "mul": 564,
    "arg": 565,
    "alph": 566,
    "You</w>": 567,
    "len": 568,
    "lin": 569,
    "text": 570,
    "embedd": 571,
    "age</w>": 572,
    "if</w>": 573,
    "Page": 574,
    "PageRan": 575,
    "eu": 576,
    "Your</w>": 577,
    "gorith": 578,
    "?</w>": 579,
    "th</w>": 580,
    "gravity": 581,
    "emory</w>": 582,
    "bo": 583,
    "pa": 584,
    "ilarity</w>": 585,
    "traversal</w>": 586,
    "extra": 587,
    "eterministic</w>": 588,
    "FAI": 589,
    "FAIS": 590,
    "”</w>": 591,
    "fac": 592,
    "by</w>": 593,
    "all</w>": 594,
    "###</w>": 595,
    "ough</w>": 596,
    "ts</w>": 597,
    "impor": 598,
    "tre": 599,
    "ors</w>": 600,
    "bri": 601,
    "4</w>": 602,
    "stor": 603,
    "end": 604,
    "ms</w>": 605,
    "ub": 606,
    "token</w>": 607,
    "Gravity</w>": 608,
    "ure": 609,
    "Semantic</w>": 610,
    "Structural</w>": 611,
    "rela": 612,
    "algorith": 613,
    "(v": 614,
    "T</w>": 615,
    "urn</w>": 616,
    "able</w>": 617,
    "pack": 618,
    "RAG</w>": 619,
    "cache</w>": 620,
    "ment": 621,
    "3</w>": 622,
    "AG": 623,
    "reasoning</w>": 624,
    "gu": 625,
    "infer": 626,
    "ther</w>": 627,
    "s.": 628,
    "ance</w>": 629,
    "architectur": 630,
    "logical</w>": 631,
    "ding</w>": 632,
    "comple": 633,
    "00": 634,
    "dire": 635,
    "Ret": 636,
    "Con": 637,
    "data": 638,
    "Graph</w>": 639,
    "al-": 640,
    "Cos": 641,
    "\"\"\"</w>": 642,
    "current_": 643,
    "1.": 644,
    "org": 645,
    "ifol": 646,
    "we</w>": 647,
    "),</w>": 648,
    "multi": 649,
    "not</w>": 650,
    "ic</w>": 651,
    "ant</w>": 652,
    "heav": 653,
    "sub": 654,
    "vector</w>": 655,
    "all": 656,
    ")$</w>": 657,
    "sw": 658,
    "ad</w>": 659,
    "wind": 660,
    "cri": 661,
    "search</w>": 662,
    "lue": 663,
    "luepr": 664,
    "ula": 665,
    "alu": 666,
    "heap": 667,
    "FAISS</w>": 668,
    "_hash": 669,
    "PageRank</w>": 670,
    "AGE</w>": 671,
    "ency</w>": 672,
    "in-": 673,
    ".org": 674,
    "just</w>": 675,
    "ers</w>": 676,
    "G(v": 677,
    "$\\": 678,
    "dist": 679,
    "ized</w>": 680,
    "lim": 681,
    "bluepr": 682,
    "e:</w>": 683,
    "Network": 684,
    "ing-": 685,
    "Retriev": 686,
    "deterministic</w>": 687,
    "]</w>": 688,
    "Sim": 689,
    "d_": 690,
    "search": 691,
    "==</w>": 692,
    "pre": 693,
    "Ev": 694,
    "5</w>": 695,
    "8</w>": 696,
    "PAGE</w>": 697,
    "AI</w>": 698,
    "'t</w>": 699,
    "when</w>": 700,
    "ight</w>": 701,
    "mantic": 702,
    "king</w>": 703,
    "ational</w>": 704,
    "ful": 705,
    "rac": 706,
    "highly</w>": 707,
    "clu": 708,
    "pl": 709,
    "ches": 710,
    "chestra": 711,
    "ates</w>": 712,
    "w</w>": 713,
    "ID": 714,
    "function</w>": 715,
    "I</w>": 716,
    "RAM</w>": 717,
    "4.</w>": 718,
    "g-": 719,
    "NetworkX": 720,
    "est": 721,
    "ear": 722,
    "fais": 723,
    "array": 724,
    "s_": 725,
    "odu": 726,
    "ating</w>": 727,
    "mat": 728,
    "sic": 729,
    "buil": 730,
    "gravity</w>": 731,
    "des": 732,
    "retriev": 733,
    "ute</w>": 734,
    "LLM": 735,
    "el": 736,
    "ks</w>": 737,
    "run": 738,
    "lic": 739,
    "blueprint</w>": 740,
    "ses</w>": 741,
    "ug": 742,
    "ain": 743,
    "):</w>": 744,
    "flo": 745,
    "}</w>": 746,
    "lat": 747,
    "x-": 748,
    "Heap</w>": 749,
    "red": 750,
    "anch": 751,
    "www": 752,
    "www.": 753,
    "manifol": 754,
    "prompt</w>": 755,
    "doc": 756,
    "yn": 757,
    "Node": 758,
    "ps</w>": 759,
    "have</w>": 760,
    "How</w>": 761,
    "one</w>": 762,
    "eca": 763,
    "An": 764,
    "get": 765,
    "hy": 766,
    "las": 767,
    "coun": 768,
    "via</w>": 769,
    "sto": 770,
    "vir": 771,
    "ary</w>": 772,
    "math": 773,
    "sim": 774,
    "ov": 775,
    "gener": 776,
    "topo": 777,
    "eng": 778,
    "Gener": 779,
    "constra": 780,
    "return</w>": 781,
    "Cosine</w>": 782,
    "vector": 783,
    "es:</w>": 784,
    "|</w>": 785,
    "ents</w>": 786,
    "sit": 787,
    "pres": 788,
    "6</w>": 789,
    "●</w>": 790,
    "https://www.": 791,
    ".org/": 792,
    "cture": 793,
    "rans": 794,
    "sive</w>": 795,
    "ate": 796,
    "requ": 797,
    "OR": 798,
    "these</w>": 799,
    "To</w>": 800,
    "ost</w>": 801,
    "of": 802,
    "ses": 803,
    "Di": 804,
    "knowledge</w>": 805,
    "ce</w>": 806,
    "ap": 807,
    "re</w>": 808,
    "ect": 809,
    "chunk": 810,
    "ls</w>": 811,
    "nec": 812,
    "ever": 813,
    "Seam": 814,
    "disc": 815,
    "typ": 816,
    "Scor": 817,
    "memory</w>": 818,
    "ci": 819,
    "answ": 820,
    "op</w>": 821,
    "ile</w>": 822,
    "import</w>": 823,
    "heapq": 824,
    "=0.": 825,
    "prior": 826,
    "Max-": 827,
    "Max-Heap</w>": 828,
    "dep": 829,
    "som": 830,
    "Evidence</w>": 831,
    "amp": 832,
    "budg": 833,
    "node_": 834,
    "y-": 835,
    "e-sit": 836,
    "evid": 837,
    "te</w>": 838,
    "ess": 839,
    "mas": 840,
    "how</w>": 841,
    "uti": 842,
    "Tri": 843,
    "mathematically</w>": 844,
    "form": 845,
    "comes</w>": 846,
    "heavy</w>": 847,
    "dens": 848,
    "thr": 849,
    "alpha</w>": 850,
    "beta</w>": 851,
    "En": 852,
    "ure</w>": 853,
    "ack</w>": 854,
    "sol": 855,
    "led</w>": 856,
    "Cach": 857,
    "Neur": 858,
    "hal": 859,
    "luc": 860,
    "lucin": 861,
    "ty</w>": 862,
    "ecause</w>": 863,
    "ant": 864,
    "betwe": 865,
    "between</w>": 866,
    "ies</w>": 867,
    "has</w>": 868,
    "loc": 869,
    "calcula": 870,
    "score</w>": 871,
    "ound": 872,
    "s)</w>": 873,
    "ay": 874,
    "walk</w>": 875,
    "window": 876,
    "secon": 877,
    "end</w>": 878,
    "’s</w>": 879,
    "defin": 880,
    "ugmen": 881,
    "oper": 882,
    "-></w>": 883,
    "NetworkX</w>": 884,
    "Similarity</w>": 885,
    "node": 886,
    "max_": 887,
    "liz": 888,
    "s/": 889,
    "PU": 890,
    "s-": 891,
    "tree-sit": 892,
    "heavi": 893,
    "temp": 894,
    "exact": 895,
    "ulate</w>": 896,
    "Knowledge</w>": 897,
    "When</w>": 898,
    "where</w>": 899,
    "ll": 900,
    "without</w>": 901,
    "ST": 902,
    "ich</w>": 903,
    "ext</w>": 904,
    "spec": 905,
    "structur": 906,
    "bin": 907,
    "In</w>": 908,
    "clust": 909,
    "gn": 910,
    "\")</w>": 911,
    "$G(v": 912,
    "act</w>": 913,
    "ward</w>": 914,
    "ign": 915,
    "architecture</w>": 916,
    "ttlen": 917,
    "ttlenec": 918,
    "model</w>": 919,
    "Or": 920,
    "chestrat": 921,
    "inst": 922,
    "euristic</w>": 923,
    "app": 924,
    "clas": 925,
    "embedding": 926,
    "virtual</w>": 927,
    "RAM": 928,
    "like</w>": 929,
    "col": 930,
    "multi-": 931,
    "cted</w>": 932,
    "def</w>": 933,
    "Qu": 934,
    "ces</w>": 935,
    "queu": 936,
    "\\n": 937,
    "utiliz": 938,
    "file</w>": 939,
    "1.0</w>": 940,
    "query</w>": 941,
    "facet": 942,
    "lob": 943,
    "angu": 944,
    "Comp": 945,
    "ter-": 946,
    ">=0.": 947,
    "cep": 948,
    "evidence": 949,
    "loo": 950,
    "exactly</w>": 951,
    "cre": 952,
    "tri": 953,
    "Ver": 954,
    "se</w>": 955,
    "Data": 956,
    "relevant</w>": 957,
    "semantic": 958,
    "contin": 959,
    "continu": 960,
    "neighbor": 961,
    "edges</w>": 962,
    "mak": 963,
    "ynam": 964,
    "opo": 965,
    "oul": 966,
    "ould</w>": 967,
    "layer": 968,
    "ai": 969,
    "exec": 970,
    "wil": 971,
    "hallucin": 972,
    "sing": 973,
    "only</w>": 974,
    "hol": 975,
    "ght": 976,
    "Data</w>": 977,
    "relation": 978,
    "ta": 979,
    "bra": 980,
    "To": 981,
    "Lay": 982,
    "Wal": 983,
    "nodes": 984,
    "illi": 985,
    "model": 986,
    "using</w>": 987,
    "hi": 988,
    "ine": 989,
    "Mode": 990,
    "ugmented</w>": 991,
    "tik": 992,
    "np.n": 993,
    "np.nd": 994,
    "()</w>": 995,
    "Pr": 996,
    "nx": 997,
    "nx.": 998,
    "hunk_hash": 999,
    "read": 1000,
    "neighbor</w>": 1001,
    "gravity_scor": 1002,
    "eth": 1003,
    "Is</w>": 1004,
    "↓</w>": 1005,
    "-0": 1006,
    "ing,</w>": 1007,
    "Re": 1008,
    "•</w>": 1009,
    "fficient</w>": 1010,
    "Min-": 1011,
    "Max</w>": 1012,
    "$O": 1013,
    "$O(": 1014,
    ">=0.2": 1015,
    "tree-sitter-": 1016,
    "concep": 1017,
    "fi": 1018,
    "very</w>": 1019,
    "mathematical</w>": 1020,
    "what</w>": 1021,
    "ke": 1022,
    ";</w>": 1023,
    "tely</w>": 1024,
    "tical</w>": 1025,
    "Tripar": 1026,
    "Triparti": 1027,
    "ing.</w>": 1028,
    "next</w>": 1029,
    "becomes</w>": 1030,
    "iti": 1031,
    "C</w>": 1032,
    "($": 1033,
    "session": 1034,
    "exact</w>": 1035,
    "ros": 1036,
    "D</w>": 1037,
    "actu": 1038,
    "will</w>": 1039,
    "(The</w>": 1040,
    "und": 1041,
    "ree</w>": 1042,
    "ort": 1043,
    "agent": 1044,
    "ering</w>": 1045,
    "so</w>": 1046,
    "stra": 1047,
    "-d": 1048,
    "need": 1049,
    "relationsh": 1050,
    "relationshi": 1051,
    "Because</w>": 1052,
    "connec": 1053,
    "By</w>": 1054,
    "ob": 1055,
    "Topo": 1056,
    "Tra": 1057,
    "Augmented</w>": 1058,
    "ains</w>": 1059,
    "cts</w>": 1060,
    "constru": 1061,
    "_graph": 1062,
    "(\"": 1063,
    "pen": 1064,
    "enough</w>": 1065,
    "alpha": 1066,
    "pag": 1067,
    "someth": 1068,
    "clo": 1069,
    "inference</w>": 1070,
    "5.</w>": 1071,
    "high-": 1072,
    "Min-Max</w>": 1073,
    "Search</w>": 1074,
    "normalized</w>": 1075,
    "scores</w>": 1076,
    "hybri": 1077,
    "rag-": 1078,
    "with-": 1079,
    "/2": 1080,
    "chan": 1081,
    "pi": 1082,
    "you": 1083,
    "n't</w>": 1084,
    "ning</w>": 1085,
    "calculate</w>": 1086,
    "pul": 1087,
    "comput": 1088,
    "Tripartite": 1089,
    "TripartiteData": 1090,
    "TripartiteDataST": 1091,
    "TripartiteDataSTOR": 1092,
    "but</w>": 1093,
    "er.</w>": 1094,
    "them</w>": 1095,
    "specif": 1096,
    "combin": 1097,
    "entr": 1098,
    "through</w>": 1099,
    "Python": 1100,
    "relevance</w>": 1101,
    "current</w>": 1102,
    "Why</w>": 1103,
    "Cache</w>": 1104,
    "Orchestrat": 1105,
    "Inste": 1106,
    "acts</w>": 1107,
    "single</w>": 1108,
    "e.": 1109,
    "entity</w>": 1110,
    "neur": 1111,
    "Ter": 1112,
    "sli": 1113,
    "sive": 1114,
    "class</w>": 1115,
    "ypas": 1116,
    "tempor": 1117,
    "entire": 1118,
    "brar": 1119,
    "can": 1120,
    "be</w>": 1121,
    "**The</w>": 1122,
    "y_": 1123,
    "para": 1124,
    "ola": 1125,
    "bati": 1126,
    "batim</w>": 1127,
    "similarity</w>": 1128,
    "d-": 1129,
    "ar</w>": 1130,
    "teg": 1131,
    "Walk": 1132,
    "Ag": 1133,
    "packag": 1134,
    "milli": 1135,
    "tokens": 1136,
    "What</w>": 1137,
    "ed,</w>": 1138,
    "Generation</w>": 1139,
    "ach</w>": 1140,
    "co": 1141,
    "ransform": 1142,
    "self.d": 1143,
    "store</w>": 1144,
    "andard</w>": 1145,
    "beta": 1146,
    "oc": 1147,
    "algorithm</w>": 1148,
    "something</w>": 1149,
    "—</w>": 1150,
    "**:</w>": 1151,
    "bound": 1152,
    "dimen": 1153,
    "7</w>": 1154,
    "Fac": 1155,
    "glob": 1156,
    "imple": 1157,
    "met": 1158,
    "PU</w>": 1159,
    "Score</w>": 1160,
    "ht": 1161,
    "htm": 1162,
    ">=0.21.0</w>": 1163,
    "heaviest</w>": 1164,
    "match": 1165,
    "each</w>": 1166,
    "ight": 1167,
    "ality</w>": 1168,
    "dense</w>": 1169,
    "subgraph</w>": 1170,
    "it,</w>": 1171,
    "sign": 1172,
    "most</w>": 1173,
    "ir</w>": 1174,
    "Gravity": 1175,
    "$.</w>": 1176,
    "dra": 1177,
    "than</w>": 1178,
    "highest</w>": 1179,
    "syn": 1180,
    "synthes": 1181,
    "ly.</w>": 1182,
    "rea": 1183,
    "dow": 1184,
    "tions</w>": 1185,
    "ons</w>": 1186,
    "ard": 1187,
    "tive": 1188,
    "ous": 1189,
    "av": 1190,
    "ose</w>": 1191,
    "heuristic</w>": 1192,
    "instant": 1193,
    "Phas": 1194,
    "Phase</w>": 1195,
    "arget</w>": 1196,
    "calculate": 1197,
    "eas": 1198,
    "uring</w>": 1199,
    "tw": 1200,
    "limit": 1201,
    "entirely</w>": 1202,
    "librar": 1203,
    "ok": 1204,
    "inter": 1205,
    "ated</w>": 1206,
    "architecture": 1207,
    "Layer": 1208,
    "ently</w>": 1209,
    "cos": 1210,
    "lif": 1211,
    "answer</w>": 1212,
    "Memory</w>": 1213,
    "colle": 1214,
    "agent</w>": 1215,
    "ON": 1216,
    "prob": 1217,
    "ment</w>": 1218,
    "evalu": 1219,
    "Sub": 1220,
    "ctly</w>": 1221,
    "millisecon": 1222,
    "Topological</w>": 1223,
    "Bu": 1224,
    "expl": 1225,
    "while</w>": 1226,
    "Retrieval-": 1227,
    "Retrieval-Augmented</w>": 1228,
    "lies</w>": 1229,
    "utes</w>": 1230,
    "ly": 1231,
    "extraction</w>": 1232,
    "(self": 1233,
    "(self,</w>": 1234,
    "float": 1235,
    "CI": 1236,
    ".enc": 1237,
    "ready</w>": 1238,
    "Normaliz": 1239,
    "0.0": 1240,
    "Queu": 1241,
    "Token": 1242,
    "ations</w>": 1243,
    "Walker</w>": 1244,
    "appro": 1245,
    "redu": 1246,
    "sum": 1247,
    "Examp": 1248,
    "sing</w>": 1249,
    "dimension": 1250,
    "fron": 1251,
    "kv": 1252,
    "fail": 1253,
    "ving</w>": 1254,
    "6.</w>": 1255,
    "RAG:</w>": 1256,
    "ined</w>": 1257,
    "abi": 1258,
    "bottlenec": 1259,
    "ce": 1260,
    "bf": 1261,
    "blog": 1262,
    "https://ar": 1263,
    "https://arx": 1264,
    "https://arxiv": 1265,
    "https://arxiv.org/": 1266,
    "pyth": 1267,
    "then</w>": 1268,
    "acc": 1269,
    "weight</w>": 1270,
    "system": 1271,
    "manifold</w>": 1272,
    "massive</w>": 1273,
    "datab": 1274,
    "which</w>": 1275,
    "ame</w>": 1276,
    "d,</w>": 1277,
    "docum": 1278,
    "any</w>": 1279,
    "import": 1280,
    "makes</w>": 1281,
    "why</w>": 1282,
    "ER": 1283,
    "simp": 1284,
    "up</w>": 1285,
    "step</w>": 1286,
    "scoring</w>": 1287,
    "neighbors</w>": 1288,
    "num": 1289,
    "absol": 1290,
    "load</w>": 1291,
    "low</w>": 1292,
    "):**</w>": 1293,
    "ro": 1294,
    ".,</w>": 1295,
    "Id": 1296,
    "they</w>": 1297,
    "three</w>": 1298,
    "tern": 1299,
    "walking</w>": 1300,
    "rit": 1301,
    "That</w>": 1302,
    "aw": 1303,
    "ves</w>": 1304,
    "cod": 1305,
    "calculate_": 1306,
    "pe": 1307,
    "bypas": 1308,
    "sa": 1309,
    "ist": 1310,
    "perman": 1311,
    "more</w>": 1312,
    "over</w>": 1313,
    "ques": 1314,
    "Exp": 1315,
    "final</w>": 1316,
    "Com": 1317,
    "dev": 1318,
    "elo": 1319,
    "optim": 1320,
    "Extra": 1321,
    "iter": 1322,
    "count</w>": 1323,
    "raw": 1324,
    "Me": 1325,
    "based</w>": 1326,
    "traversal": 1327,
    "$$</w>": 1328,
    "proces": 1329,
    "np.ndarray": 1330,
    "rand": 1331,
    "len(": 1332,
    "Vect": 1333,
    "ilarity": 1334,
    "index": 1335,
    "e)</w>": 1336,
    "already</w>": 1337,
    "edge</w>": 1338,
    "Open": 1339,
    "))</w>": 1340,
    "session_": 1341,
    "top": 1342,
    "float</w>": 1343,
    ".0": 1344,
    "pager": 1345,
    "pageran": 1346,
    "pagerank": 1347,
    "priority</w>": 1348,
    "Pri": 1349,
    "print": 1350,
    "L</w>": 1351,
    "================================": 1352,
    "========================================": 1353,
    "==========================================</w>": 1354,
    "go": 1355,
    "depend": 1356,
    "........": 1357,
    "systems</w>": 1358,
    "**,</w>": 1359,
    "─</w>": 1360,
    "│</w>": 1361,
    "code</w>": 1362,
    "like:</w>": 1363,
    "head": 1364,
    "chunks</w>": 1365,
    "ower": 1366,
    "E-0": 1367,
    "rese": 1368,
    "clos": 1369,
    "Travers": 1370,
    "Traversal</w>": 1371,
    "topolog": 1372,
    "out": 1373,
    "ically</w>": 1374,
    "achi": 1375,
    "achiev": 1376,
    "budget</w>": 1377,
    "ik": 1378,
    "ound</w>": 1379,
    "ire": 1380,
    "bi": 1381,
    "edu": 1382,
    "anchor": 1383,
    "anguage</w>": 1384,
    "ric": 1385,
    "prise</w>": 1386,
    "within</w>": 1387,
    "GraphRAG</w>": 1388,
    "how": 1389,
    "alue</w>": 1390,
    "ative</w>": 1391,
    "array</w>": 1392,
    "dot</w>": 1393,
    "mathbf": 1394,
    "mathbf{": 1395,
    "repres": 1396,
    "0.</w>": 1397,
    "7.</w>": 1398,
    "llm": 1399,
    "dium": 1400,
    "arX": 1401,
    "arXiv": 1402,
    "https://arxiv.org/htm": 1403,
    "https://arxiv.org/html": 1404,
    "https://arxiv.org/html/2": 1405,
    "v1</w>": 1406,
    "search-": 1407,
    "TH": 1408,
    "rodu": 1409,
    "find": 1410,
    "bag": 1411,
    "termin": 1412,
    "happ": 1413,
    ".\"</w>": 1414,
    "Structur": 1415,
    "network": 1416,
    "itational</w>": 1417,
    "phy": 1418,
    "physic": 1419,
    "Here</w>": 1420,
    "ful</w>": 1421,
    "Mat": 1422,
    "Su": 1423,
    "layer</w>": 1424,
    "mean": 1425,
    "other</w>": 1426,
    "ous</w>": 1427,
    "their</w>": 1428,
    "For</w>": 1429,
    "does</w>": 1430,
    "toward</w>": 1431,
    "tru": 1432,
    "rather</w>": 1433,
    "able": 1434,
    "function": 1435,
    "numb": 1436,
    "about</w>": 1437,
    "down</w>": 1438,
    "star": 1439,
    "Orchestrator</w>": 1440,
    "mic": 1441,
    "e.g": 1442,
    "e.g.,</w>": 1443,
    "es/": 1444,
    "every</w>": 1445,
    "point": 1446,
    "Term</w>": 1447,
    "user</w>": 1448,
    "se.</w>": 1449,
    "bit</w>": 1450,
    "Dens": 1451,
    "sliding</w>": 1452,
    "cluster</w>": 1453,
    "stri": 1454,
    ")**</w>": 1455,
    "De": 1456,
    "Fun": 1457,
    "calculate_gravity": 1458,
    "Lo": 1459,
    "stops</w>": 1460,
    "am</w>": 1461,
    "resp": 1462,
    "respon": 1463,
    "permanent</w>": 1464,
    "dri": 1465,
    "does": 1466,
    "s**</w>": 1467,
    "Vir": 1468,
    "Virtual</w>": 1469,
    "cle": 1470,
    "Initi": 1471,
    "Initializ": 1472,
    "question": 1473,
    "rip": 1474,
    "We</w>": 1475,
    "ght</w>": 1476,
    "do</w>": 1477,
    "ical</w>": 1478,
    "cting</w>": 1479,
    "directly</w>": 1480,
    "dition": 1481,
    "ble</w>": 1482,
    "Buil": 1483,
    "Graph-": 1484,
    "ase</w>": 1485,
    "sequ": 1486,
    "**S": 1487,
    "mov": 1488,
    "Retrieval</w>": 1489,
    "ump": 1490,
    "heapq</w>": 1491,
    "Dict": 1492,
    "embedding</w>": 1493,
    "])</w>": 1494,
    "seed": 1495,
    "__": 1496,
    "_stor": 1497,
    "idx": 1498,
    ".encode": 1499,
    ".encode(": 1500,
    "ingest": 1501,
    "parent_": 1502,
    "parent_hash": 1503,
    "normalize_": 1504,
    ".ad": 1505,
    "tokeniz": 1506,
    "S)</w>": 1507,
    "dec": 1508,
    "isola": 1509,
    "queue</w>": 1510,
    "de</w>": 1511,
    "Prior": 1512,
    "Priority</w>": 1513,
    "priority": 1514,
    "db": 1515,
    "<end</w>": 1516,
    "pat": 1517,
    "architectural</w>": 1518,
    "ca": 1519,
    "under": 1520,
    "sm": 1521,
    "That": 1522,
    "That’s</w>": 1523,
    "inv": 1524,
    "verif": 1525,
    "explor": 1526,
    "synthesis</w>": 1527,
    "sever": 1528,
    "graph-": 1529,
    "defined</w>": 1530,
    "max</w>": 1531,
    "time</w>": 1532,
    "fronti": 1533,
    "per</w>": 1534,
    "sure": 1535,
    "es)</w>": 1536,
    "xi": 1537,
    "9</w>": 1538,
    "metric": 1539,
    "standard</w>": 1540,
    "hop</w>": 1541,
    "enter": 1542,
    "enterprise</w>": 1543,
    "stru": 1544,
    "implement": 1545,
    "abili": 1546,
    "computational</w>": 1547,
    "latenc": 1548,
    "algorithms</w>": 1549,
    "mon": 1550,
    "Num": 1551,
    "NumP": 1552,
    "token-": 1553,
    ".1</w>": 1554,
    "\\c": 1555,
    "\\cdot</w>": 1556,
    "ser": 1557,
    "seam_": 1558,
    "8.</w>": 1559,
    "9.</w>": 1560,
    "blog/": 1561,
    "and-": 1562,
    "r/": 1563,
    "introdu": 1564,
    "was</w>": 1565,
    "accu": 1566,
    "happen": 1567,
    "Semantic": 1568,
    "Structural": 1569,
    "gravitational</w>": 1570,
    "relevanc": 1571,
    "mapp": 1572,
    "know": 1573,
    "same</w>": 1574,
    "specific</w>": 1575,
    "centr": 1576,
    "don": 1577,
    "don't</w>": 1578,
    "need</w>": 1579,
    "equ": 1580,
    "$)</w>": 1581,
    "ynamic</w>": 1582,
    "ation.</w>": 1583,
    "nat": 1584,
    "$G(v)$</w>": 1585,
    "node,</w>": 1586,
    "acros": 1587,
    "across</w>": 1588,
    "perf": 1589,
    "actually</w>": 1590,
    "limit</w>": 1591,
    ",00": 1592,
    "window</w>": 1593,
    "Instead</w>": 1594,
    "AP": 1595,
    "call</w>": 1596,
    "conne": 1597,
    "ron": 1598,
    "unk</w>": 1599,
    "neuron</w>": 1600,
    "Anch": 1601,
    "Anchor</w>": 1602,
    "Memor": 1603,
    "TripartiteDataSTORE": 1604,
    "discover": 1605,
    "gr": 1606,
    "ying</w>": 1607,
    "rite</w>": 1608,
    "Seam,</w>": 1609,
    "gets</w>": 1610,
    "now</w>": 1611,
    "instantly</w>": 1612,
    "context": 1613,
    "Scoring</w>": 1614,
    "number</w>": 1615,
    "user": 1616,
    "user's</w>": 1617,
    "10</w>": 1618,
    "loop": 1619,
    "ns</w>": 1620,
    "seam</w>": 1621,
    "absolute</w>": 1622,
    "memor": 1623,
    "RAM.</w>": 1624,
    "gram": 1625,
    "doesn't</w>": 1626,
    "emp": 1627,
    "graphs</w>": 1628,
    "temporary</w>": 1629,
    "expand": 1630,
    "ecy": 1631,
    "used</w>": 1632,
    "ong-": 1633,
    "ever</w>": 1634,
    "ards</w>": 1635,
    "package</w>": 1636,
    "EN": 1637,
    "%</w>": 1638,
    "low,</w>": 1639,
    "optimized</w>": 1640,
    "lea": 1641,
    "evaluate</w>": 1642,
    "LLM.</w>": 1643,
    "ent-": 1644,
    "Ad": 1645,
    "package.</w>": 1646,
    "pay": 1647,
    "50": 1648,
    "Context</w>": 1649,
    "Wind": 1650,
    "ain</w>": 1651,
    "Ar": 1652,
    "yste": 1653,
    "fol": 1654,
    ").": 1655,
    "Extraction</w>": 1656,
    "constraint": 1657,
    "topological</w>": 1658,
    "ed.</w>": 1659,
    "AN": 1660,
    "tiktoken</w>": 1661,
    "umm": 1662,
    "32": 1663,
    "DA": 1664,
    "Ind": 1665,
    "Index": 1666,
    "_di": 1667,
    "str,</w>": 1668,
    "faiss.": 1669,
    "_to": 1670,
    "-f": 1671,
    "ingest_": 1672,
    "ingest_hunk": 1673,
    "hunk_hash</w>": 1674,
    "er.encode(": 1675,
    "max_token": 1676,
    "max_tokens:</w>": 1677,
    "session_seam": 1678,
    "nx.Graph": 1679,
    "sition": 1680,
    "self.ds.": 1681,
    "e=": 1682,
    "Exec": 1683,
    "gravity_scores</w>": 1684,
    "visi": 1685,
    "<</w>": 1686,
    "heapq.": 1687,
    "main": 1688,
    "Initialize</w>": 1689,
    "ift</w>": 1690,
    "prompt></w>": 1691,
    "’re</w>": 1692,
    "lain": 1693,
    "st</w>": 1694,
    "rep": 1695,
    "App": 1696,
    "ide</w>": 1697,
    "relationships</w>": 1698,
    "caus": 1699,
    "Dep": 1700,
    "power": 1701,
    "ask": 1702,
    "ing:</w>": 1703,
    "might</w>": 1704,
    "refer": 1705,
    "target</w>": 1706,
    "intent</w>": 1707,
    "Int": 1708,
    "Cri": 1709,
    "fficiency</w>": 1710,
    "0.8": 1711,
    "budget": 1712,
    "require": 1713,
    "Facet</w>": 1714,
    "facet</w>": 1715,
    "global</w>": 1716,
    "critical</w>": 1717,
    "scal": 1718,
    "Models</w>": 1719,
    "ever,</w>": 1720,
    "probabili": 1721,
    "stic</w>": 1722,
    "local": 1723,
    "While</w>": 1724,
    "Normalization</w>": 1725,
    "NumPy</w>": 1726,
    "token-constra": 1727,
    "must</w>": 1728,
    "utor": 1729,
    "ten": 1730,
    "16</w>": 1731,
    ".2</w>": 1732,
    "spe": 1733,
    "larg": 1734,
    "utilizing</w>": 1735,
    "\\mathbf{": 1736,
    "both</w>": 1737,
    "rank</w>": 1738,
    "ization</w>": 1739,
    "usion</w>": 1740,
    "array(": 1741,
    "ction-": 1742,
    "to-": 1743,
    "gith": 1744,
    "github": 1745,
    "30": 1746,
    "kv-": 1747,
    "kv-cach": 1748,
    "eloper": 1749,
    "s/1": 1750,
    "hybrid-": 1751,
    "python": 1752,
    "ced</w>": 1753,
    "ition</w>": 1754,
    "overla": 1755,
    "incre": 1756,
    "car": 1757,
    "(Ver": 1758,
    "multip": 1759,
    "layers</w>": 1760,
    "ign</w>": 1761,
    "s\"</w>": 1762,
    "well": 1763,
    "Over": 1764,
    "rix</w>": 1765,
    "sition</w>": 1766,
    "ink</w>": 1767,
    "semantically</w>": 1768,
    "weight": 1769,
    "theor": 1770,
    "find</w>": 1771,
    "algorithm": 1772,
    "prop": 1773,
    "ractic": 1774,
    "\\beta</w>": 1775,
    "ma</w>": 1776,
    "it's</w>": 1777,
    "T$": 1778,
    "distance</w>": 1779,
    "ther": 1780,
    "ings</w>": 1781,
    "ing\"</w>": 1782,
    "design": 1783,
    "simple</w>": 1784,
    "mechan": 1785,
    "were</w>": 1786,
    "nai": 1787,
    "entire</w>": 1788,
    "dr": 1789,
    "imm": 1790,
    "perfect": 1791,
    "completely</w>": 1792,
    "cor": 1793,
    ",000</w>": 1794,
    "(the</w>": 1795,
    "core</w>": 1796,
    "Neuron": 1797,
    "Identity</w>": 1798,
    "conf": 1799,
    "lli": 1800,
    "Sh": 1801,
    "a,</w>": 1802,
    "ail": 1803,
    "ly,</w>": 1804,
    "wand": 1805,
    "data.</w>": 1806,
    "descri": 1807,
    "rab": 1808,
    "1:</w>": 1809,
    "ked</w>": 1810,
    "massive": 1811,
    "Al": 1812,
    "Function</w>": 1813,
    "calculate_gravity(": 1814,
    "G(v)</w>": 1815,
    "tak": 1816,
    "up": 1817,
    "ics</w>": 1818,
    "ter</w>": 1819,
    "4-": 1820,
    "exist": 1821,
    "query.</w>": 1822,
    "hard</w>": 1823,
    "library</w>": 1824,
    "book": 1825,
    "raw</w>": 1826,
    "Node_": 1827,
    "Node_ID": 1828,
    "Verbatim</w>": 1829,
    "resul": 1830,
    "her": 1831,
    "tal</w>": 1832,
    "lifecy": 1833,
    "nodes,</w>": 1834,
    "generate</w>": 1835,
    "Comm": 1836,
    "Long-": 1837,
    "built</w>": 1838,
    "scrip": 1839,
    "script</w>": 1840,
    "head</w>": 1841,
    "siz": 1842,
    "repl": 1843,
    "replac": 1844,
    "ensive</w>": 1845,
    "e**.</w>": 1846,
    "distanc": 1847,
    "Pack": 1848,
    "Subgraph</w>": 1849,
    "loop</w>": 1850,
    "Fin": 1851,
    "Head": 1852,
    "fy</w>": 1853,
    "Rep": 1854,
    "Ke": 1855,
    "ep</w>": 1856,
    "millisecond</w>": 1857,
    "payload</w>": 1858,
    "window.</w>": 1859,
    "ay</w>": 1860,
    "histor": 1861,
    "Build</w>": 1862,
    "engine": 1863,
    "riv": 1864,
    "Model</w>": 1865,
    "fe": 1866,
    "relies</w>": 1867,
    "contains</w>": 1868,
    "ip": 1869,
    "executes</w>": 1870,
    "follow": 1871,
    "**Ste": 1872,
    "**Step</w>": 1873,
    "Each</w>": 1874,
    "as:</w>": 1875,
    "ity,</w>": 1876,
    "reach": 1877,
    "On": 1878,
    "ane": 1879,
    "ared</w>": 1880,
    "effici": 1881,
    "PR": 1882,
    "F</w>": 1883,
    "b</w>": 1884,
    "nump": 1885,
    "numpy</w>": 1886,
    "TE": 1887,
    "ence-": 1888,
    "transform": 1889,
    "Transform": 1890,
    "encod": 1891,
    "er:</w>": 1892,
    "np.ndarray:</w>": 1893,
    "vectors</w>": 1894,
    "float32": 1895,
    "CIS</w>": 1896,
    "Vector</w>": 1897,
    "DAC</w>": 1898,
    "Dict[": 1899,
    "{}</w>": 1900,
    "Similarity": 1901,
    "faiss_": 1902,
    "faiss_index": 1903,
    "idx</w>": 1904,
    "Cre": 1905,
    "text)</w>": 1906,
    "L2": 1907,
    "ac_graph": 1908,
    ".add_": 1909,
    "ctive</w>": 1910,
    "Agent</w>": 1911,
    "datastore</w>": 1912,
    "tiktoken": 1913,
    "k_": 1914,
    "directed</w>": 1915,
    "direction": 1916,
    "list": 1917,
    "1.0": 1918,
    "T)</w>": 1919,
    "gravity_scores": 1920,
    "ence)</w>": 1921,
    "max(": 1922,
    "(-": 1923,
    "current_tokens</w>": 1924,
    "heapq.hea": 1925,
    "heapq.heapp": 1926,
    "ted": 1927,
    "current_node": 1928,
    "verbatim</w>": 1929,
    "print(": 1930,
    "f\"": 1931,
    "\\n\\n": 1932,
    "ig</w>": 1933,
    "db.": 1934,
    "db.ingest_hunk": 1935,
    "db.ingest_hunk(\"": 1936,
    "fra": 1937,
    "utilizes</w>": 1938,
    "(e.g.,</w>": 1939,
    "Promp": 1940,
    "you’re</w>": 1941,
    "sions</w>": 1942,
    "├─</w>": 1943,
    "So</w>": 1944,
    "conceptual</w>": 1945,
    "structure</w>": 1946,
    "Depend": 1947,
    "erarch": 1948,
    "Which</w>": 1949,
    "?”</w>": 1950,
    "small</w>": 1951,
    "E-01": 1952,
    "ensic": 1953,
    "ensic</w>": 1954,
    "approach</w>": 1955,
    "document": 1956,
    "NodeWalker</w>": 1957,
    "le:</w>": 1958,
    "moving</w>": 1959,
    "Intent</w>": 1960,
    "important</w>": 1961,
    "two</w>": 1962,
    "er**</w>": 1963,
    "mo": 1964,
    "pos": 1965,
    "this": 1966,
    "top</w>": 1967,
    "tis": 1968,
    "intent": 1969,
    "tic**</w>": 1970,
    "Example</w>": 1971,
    "hop": 1972,
    "true</w>": 1973,
    "OR</w>": 1974,
    "candi": 1975,
    "frontier</w>": 1976,
    "Queue</w>": 1977,
    "----": 1978,
    "inte": 1979,
    "tively</w>": 1980,
    "closure</w>": 1981,
    "evidence”</w>": 1982,
    "facets</w>": 1983,
    "aly": 1984,
    "k)</w>": 1985,
    "t,</w>": 1986,
    "44": 1987,
    "_score</w>": 1988,
    "ases</w>": 1989,
    "entiti": 1990,
    "Redu": 1991,
    "ari": 1992,
    "prox": 1993,
    "proxim": 1994,
    "by": 1995,
    "remain": 1996,
    "ives</w>": 1997,
    "maxim": 1998,
    "Deterministic</w>": 1999,
    "Pa": 2000,
    "ence,</w>": 2001,
    "Language</w>": 2002,
    "ility</w>": 2003,
    "multi-hop</w>": 2004,
    "causal</w>": 2005,
    "GraphRAG": 2006,
    "probabilistic</w>": 2007,
    "CPU</w>": 2008,
    "armon": 2009,
    "token-constrained</w>": 2010,
    "value</w>": 2011,
    "GPU</w>": 2012,
    "linear": 2013,
    "_{": 2014,
    "}$</w>": 2015,
    "oft": 2016,
    "latency</w>": 2017,
    "runc": 2018,
    "efficient</w>": 2019,
    "dimensional</w>": 2020,
    "produ": 2021,
    "\\f": 2022,
    "\\frac": 2023,
    "\\frac{": 2024,
    "}{": 2025,
    "anchors</w>": 2026,
    "ation,</w>": 2027,
    "eff": 2028,
    "effec": 2029,
    "engine</w>": 2030,
    "signal": 2031,
    "yi": 2032,
    "RR": 2033,
    "99": 2034,
    "Hub": 2035,
    "0.5": 2036,
    "ulti": 2037,
    "pagerank_scor": 2038,
    "cosin": 2039,
    "cosine_": 2040,
    "N)$</w>": 2041,
    "\\log": 2042,
    "\\log</w>": 2043,
    "open": 2044,
    "node_tokens</w>": 2045,
    "pack</w>": 2046,
    "medium": 2047,
    "medium.com/": 2048,
    "research": 2049,
    "graphrag-": 2050,
    "retrieval-": 2051,
    "https://github": 2052,
    "https://github.com/": 2053,
    "how-": 2054,
    "Hi": 2055,
    "https://arxiv.org/html/26": 2056,
    "anguag": 2057,
    "arXiv,</w>": 2058,
    "l-": 2059,
    "a-": 2060,
    "Hy": 2061,
    "Hybri": 2062,
    "data-": 2063,
    "!</w>": 2064,
    "concept</w>": 2065,
    "finding</w>": 2066,
    "overlay": 2067,
    "prompt,</w>": 2068,
    "trans": 2069,
    "look</w>": 2070,
    "here</w>": 2071,
    "bly</w>": 2072,
    "four</w>": 2073,
    "(Verba": 2074,
    "(Verbatim": 2075,
    "essenti": 2076,
    "essentially</w>": 2077,
    "relevance.</w>": 2078,
    "ok</w>": 2079,
    "simul": 2080,
    "Super": 2081,
    "position</w>": 2082,
    "TripartiteDataSTORE</w>": 2083,
    "structurally</w>": 2084,
    "den": 2085,
    "se,</w>": 2086,
    "gy</w>": 2087,
    "$G(v)</w>": 2088,
    "\\alpha</w>": 2089,
    "gam": 2090,
    "gamma</w>": 2091,
    "del": 2092,
    "delt": 2093,
    "delta</w>": 2094,
    "$\\alpha</w>": 2095,
    "S$": 2096,
    "mod": 2097,
    "natur": 2098,
    "forma": 2099,
    "NodeW": 2100,
    "NodeWA": 2101,
    "NodeWAL": 2102,
    "NodeWALK": 2103,
    "NodeWALKER": 2104,
    "th,</w>": 2105,
    "ence.</w>": 2106,
    "retrieval</w>": 2107,
    "back</w>": 2108,
    "code": 2109,
    "should</w>": 2110,
    "id</w>": 2111,
    "s?</w>": 2112,
    "OL": 2113,
    "mor": 2114,
    "brea": 2115,
    "Bo": 2116,
    "Bottlenec": 2117,
    "&</w>": 2118,
    "hit</w>": 2119,
    "ask</w>": 2120,
    "micro": 2121,
    "tin": 2122,
    "No</w>": 2123,
    "run</w>": 2124,
    "chron": 2125,
    "ously</w>": 2126,
    "les</w>": 2127,
    "chunk</w>": 2128,
    "-Con": 2129,
    "Neuron</w>": 2130,
    "prompt.</w>": 2131,
    "keep": 2132,
    "ess</w>": 2133,
    "through": 2134,
    "Man": 2135,
    "Manifol": 2136,
    "As</w>": 2137,
    "those</w>": 2138,
    "Seam.</w>": 2139,
    "dynam": 2140,
    "ic,</w>": 2141,
    "databa": 2142,
    "database.</w>": 2143,
    "rabbit</w>": 2144,
    "describ": 2145,
    "neurons</w>": 2146,
    "Turn</w>": 2147,
    "2:</w>": 2148,
    "3:</w>": 2149,
    "new</w>": 2150,
    "plan": 2151,
    "coding</w>": 2152,
    "**Phase</w>": 2153,
    "Core</w>": 2154,
    "Defin": 2155,
    "ID,</w>": 2156,
    "Edg": 2157,
    "prompt_": 2158,
    "ile": 2159,
    "scores,</w>": 2160,
    "Now</w>": 2161,
    "Then</w>": 2162,
    "memory.</w>": 2163,
    "temporar": 2164,
    "during</w>": 2165,
    "Instead": 2166,
    "Instead,</w>": 2167,
    "light": 2168,
    "ho": 2169,
    "RAM,</w>": 2170,
    "files</w>": 2171,
    "hold": 2172,
    "84": 2173,
    "10": 2174,
    "so": 2175,
    "perfectly</w>": 2176,
    "rat": 2177,
    "**Virtual</w>": 2178,
    "IDs</w>": 2179,
    "resulting</w>": 2180,
    "mag": 2181,
    "Thes": 2182,
    "These</w>": 2183,
    "ster</w>": 2184,
    "cle</w>": 2185,
    "total</w>": 2186,
    "rol": 2187,
    "Res": 2188,
    "Long-Term</w>": 2189,
    "ast</w>": 2190,
    "integ": 2191,
    "pu": 2192,
    "put</w>": 2193,
    "math,</w>": 2194,
    "ll</w>": 2195,
    "deli": 2196,
    "deliver": 2197,
    "right</w>": 2198,
    "ally.</w>": 2199,
    "uses</w>": 2200,
    "ling</w>": 2201,
    "Add</w>": 2202,
    "stops": 2203,
    "stops.</w>": 2204,
    "11": 2205,
    "maint": 2206,
    "Window": 2207,
    "ears</w>": 2208,
    "align": 2209,
    "complex": 2210,
    "limits</w>": 2211,
    "build": 2212,
    "Arch": 2213,
    "Archite": 2214,
    "-driv": 2215,
    "-driven</w>": 2216,
    "Syste": 2217,
    "operating</w>": 2218,
    "meter": 2219,
    "sist": 2220,
    "le,</w>": 2221,
    "s),</w>": 2222,
    "following</w>": 2223,
    "Ing": 2224,
    "lit</w>": 2225,
    "Cal": 2226,
    "Calc": 2227,
    "Where</w>": 2228,
    "complete": 2229,
    "cost": 2230,
    "zer": 2231,
    "MP": 2232,
    "N</w>": 2233,
    "would</w>": 2234,
    "load": 2235,
    "Sent": 2236,
    "Sentence": 2237,
    "SentenceTransform": 2238,
    "make</w>": 2239,
    "random</w>": 2240,
    "leng": 2241,
    "ype": 2242,
    "G</w>": 2243,
    "embedding_di": 2244,
    "(H": 2245,
    "ash": 2246,
    "cis": 2247,
    "cis_stor": 2248,
    "ner</w>": 2249,
    "Produ": 2250,
    "self.current_": 2251,
    "str:</w>": 2252,
    "ests</w>": 2253,
    "Store</w>": 2254,
    "faiss.normalize_": 2255,
    "faiss.normalize_L2": 2256,
    "faiss.normalize_L2(": 2257,
    "date</w>": 2258,
    "ine.</w>": 2259,
    "datastor": 2260,
    "tokenizer</w>": 2261,
    ".get": 2262,
    "100": 2263,
    "count": 2264,
    "top_": 2265,
    "top_k_": 2266,
    "ery</w>": 2267,
    "indi": 2268,
    "Un": 2269,
    "urns</w>": 2270,
    "sor": 2271,
    "ive</w>": 2272,
    "_score": 2273,
    "alpha:</w>": 2274,
    "beta:</w>": 2275,
    "C+": 2276,
    "0:</w>": 2277,
    "gravity_scores[": 2278,
    "heap</w>": 2279,
    "priority_": 2280,
    "---": 2281,
    "g_": 2282,
    "print(f\"": 2283,
    "ush": 2284,
    "Per": 2285,
    "work</w>": 2286,
    "\",</w>": 2287,
    "50</w>": 2288,
    "Prompt": 2289,
    "Prompt:</w>": 2290,
    "final": 2291,
    "final_": 2292,
    "agent></w>": 2293,
    "you'": 2294,
    "lain</w>": 2295,
    "agents</w>": 2296,
    "connects</w>": 2297,
    "shift</w>": 2298,
    "response": 2299,
    "response></w>": 2300,
    "irst</w>": 2301,
    "diff": 2302,
    "ly:</w>": 2303,
    "bloc": 2304,
    "g</w>": 2305,
    "underst": 2306,
    "ew</w>": 2307,
    "s**.</w>": 2308,
    "s**:</w>": 2309,
    "️⃣": 2310,
    "️⃣</w>": 2311,
    "extre": 2312,
    "extreme": 2313,
    "extremely</w>": 2314,
    "answer": 2315,
    "sically</w>": 2316,
    "forensic</w>": 2317,
    "**Evidence</w>": 2318,
    "hallucination</w>": 2319,
    "Inter": 2320,
    "allow": 2321,
    "critic</w>": 2322,
    "related</w>": 2323,
    "design</w>": 2324,
    "scop": 2325,
    "With": 2326,
    "been</w>": 2327,
    "bod": 2328,
    "body</w>": 2329,
    "termination</w>": 2330,
    "determin": 2331,
    "traverse</w>": 2332,
    "bounded</w>": 2333,
    "spac": 2334,
    "typically</w>": 2335,
    "supp": 2336,
    "Stop</w>": 2337,
    "string</w>": 2338,
    "Critic**</w>": 2339,
    "needed</w>": 2340,
    "mar": 2341,
    "prev": 2342,
    "some</w>": 2343,
    "far</w>": 2344,
    "orig": 2345,
    "origin": 2346,
    "0.4": 2347,
    "haus": 2348,
    "adv": 2349,
    "llig": 2350,
    "fore</w>": 2351,
    "query": 2352,
    "complete</w>": 2353,
    "sub-": 2354,
    "“enough</w>": 2355,
    "compo": 2356,
    "`Facet</w>": 2357,
    "`:</w>": 2358,
    "err": 2359,
    "error</w>": 2360,
    "expan": 2361,
    "nodes.</w>": 2362,
    "heavy": 2363,
    "near</w>": 2364,
    "points</w>": 2365,
    "inference)</w>": 2366,
    "top-": 2367,
    "scoring,</w>": 2368,
    "global": 2369,
    "tran": 2370,
    "Larg": 2371,
    "How": 2372,
    "However,</w>": 2373,
    "sively</w>": 2374,
    "query,</w>": 2375,
    "fund": 2376,
    "fundam": 2377,
    "fundament": 2378,
    "B</w>": 2379,
    "\".</w>": 2380,
    "gres": 2381,
    "structure": 2382,
    "Graph-C": 2383,
    "Graph-Co": 2384,
    "fle": 2385,
    "flexi": 2386,
    "bottleneck</w>": 2387,
    "orchestra": 2388,
    "anchor</w>": 2389,
    "ction,</w>": 2390,
    "Heuristic</w>": 2391,
    "bottleneck": 2392,
    "impro": 2393,
    "ments</w>": 2394,
    "alid": 2395,
    "conom": 2396,
    "er-": 2397,
    "atten": 2398,
    "attention</w>": 2399,
    "tens": 2400,
    "preci": 2401,
    "consum": 2402,
    "$$": 2403,
    "n_{": 2404,
    "BF": 2405,
    "16": 2406,
    "3.": 2407,
    "40</w>": 2408,
    "lication": 2409,
    "Rec": 2410,
    "trunc": 2411,
    "e/": 2412,
    "ware</w>": 2413,
    ".3</w>": 2414,
    "evic": 2415,
    "Disc": 2416,
    "Discover": 2417,
    "OpenAI": 2418,
    "OpenAI's</w>": 2419,
    "resol": 2420,
    "complex</w>": 2421,
    "latency.</w>": 2422,
    "links</w>": 2423,
    "effectively</w>": 2424,
    "Density</w>": 2425,
    "sures</w>": 2426,
    "fact": 2427,
    "hybrid</w>": 2428,
    "ribu": 2429,
    "ies.</w>": 2430,
    "yiel": 2431,
    "normalization</w>": 2432,
    "magn": 2433,
    "magnit": 2434,
    "magnitu": 2435,
    "appli": 2436,
    "applied</w>": 2437,
    "scores:</w>": 2438,
    "Fusion</w>": 2439,
    "rank": 2440,
    "scores.</w>": 2441,
    "rece": 2442,
    "receives</w>": 2443,
    "(PageRan": 2444,
    "(PageRank)</w>": 2445,
    "Bi": 2446,
    "serv": 2447,
    "Multi": 2448,
    "np.ndarra": 2449,
    "np.ndarray,</w>": 2450,
    "pre-": 2451,
    "np.as": 2452,
    "np.asarray(": 2453,
    "dtyp": 2454,
    "dtype=": 2455,
    "dtype=np.": 2456,
    "dtype=np.float32": 2457,
    "dtype=np.float32)</w>": 2458,
    "prov": 2459,
    "BP": 2460,
    "perfor": 2461,
    "caling</w>": 2462,
    "query_": 2463,
    "raw_": 2464,
    "current_token": 2465,
    "current_token_": 2466,
    "current_token_count</w>": 2467,
    "ted_": 2468,
    "Gu": 2469,
    "research/": 2470,
    "the-": 2471,
    "Git": 2472,
    "GitHub": 2473,
    "GitHub,</w>": 2474,
    "Graphs</w>": 2475,
    "-rag-": 2476,
    "es-": 2477,
    "llm-": 2478,
    ".org,</w>": 2479,
    ".n": 2480,
    "Efficient</w>": 2481,
    ".p": 2482,
    "s-with-": 2483,
    "https://dev": 2484,
    ".com/blog/": 2485,
    "Redd": 2486,
    "Reddit,</w>": 2487,
    "https://www.red": 2488,
    "https://www.redd": 2489,
    "https://www.reddit": 2490,
    "https://www.reddit.com/": 2491,
    "https://www.reddit.com/r/": 2492,
    "/com": 2493,
    "/comment": 2494,
    "/comments/1": 2495,
    "utori": 2496,
    "3/": 2497,
    "7/": 2498,
    "i/": 2499,
    "hybrid-search-": 2500,
    "Hybrid</w>": 2501,
    "20": 2502,
    "languag": 2503,
    "S:</w>": 2504,
    "chang": 2505,
    "whol": 2506,
    "whole</w>": 2507,
    "\"heaviest</w>": 2508,
    "bag</w>": 2509,
    "sci": 2510,
    "arn": 2511,
    "tempting</w>": 2512,
    "accura": 2513,
    "intu": 2514,
    "Let": 2515,
    "Let's</w>": 2516,
    "incredi": 2517,
    "incredibly</w>": 2518,
    "cartri": 2519,
    "cartridg": 2520,
    "cartridges</w>": 2521,
    "(Verbatim,</w>": 2522,
    "Semantic,</w>": 2523,
    "aren": 2524,
    "word</w>": 2525,
    "mapped</w>": 2526,
    "state": 2527,
    "simulate</w>": 2528,
    "Matrix</w>": 2529,
    "Think</w>": 2530,
    "matri": 2531,
    "knows</w>": 2532,
    "forming</w>": 2533,
    "\"hunk": 2534,
    "combined</w>": 2535,
    "node.</w>": 2536,
    "Find": 2537,
    "Centr": 2538,
    "central</w>": 2539,
    "continuous</w>": 2540,
    "energy</w>": 2541,
    "centrality</w>": 2542,
    "hits</w>": 2543,
    "manifold,</w>": 2544,
    "—the</w>": 2545,
    "enter</w>": 2546,
    "web": 2547,
    "document</w>": 2548,
    "ation:</w>": 2549,
    "Its</w>": 2550,
    "many</w>": 2551,
    "$\\beta</w>": 2552,
    "mu": 2553,
    "relates</w>": 2554,
    "active</w>": 2555,
    "Min": 2556,
    "ense</w>": 2557,
    "physical</w>": 2558,
    "naturally</w>": 2559,
    "lowest</w>": 2560,
    "informa": 2561,
    "You": 2562,
    "designed</w>": 2563,
    "ats</w>": 2564,
    "NodeWALKER</w>": 2565,
    "ought</w>": 2566,
    "manifold": 2567,
    "it.</w>": 2568,
    "al,</w>": 2569,
    "break</w>": 2570,
    "execute</w>": 2571,
    "itt": 2572,
    "Neurons</w>": 2573,
    "moder": 2574,
    "tr": 2575,
    "\"walk": 2576,
    "eith": 2577,
    "hallucinating</w>": 2578,
    "works</w>": 2579,
    "Orchestrator": 2580,
    "call": 2581,
    "API": 2582,
    "anti": 2583,
    "*.</w>": 2584,
    "Do</w>": 2585,
    "calls</w>": 2586,
    "alle": 2587,
    "l.</w>": 2588,
    "hand": 2589,
    "because</w>": 2590,
    "isu": 2591,
    "Yes,</w>": 2592,
    "Short": 2593,
    "Short-": 2594,
    "Short-Term</w>": 2595,
    "Memory": 2596,
    "pers": 2597,
    "person": 2598,
    "tool": 2599,
    "right": 2600,
    "Star": 2601,
    "wandering</w>": 2602,
    "off</w>": 2603,
    "Map": 2604,
    "TripartiteDataSTORE.</w>": 2605,
    "immut": 2606,
    "finds</w>": 2607,
    "wri": 2608,
    "grow": 2609,
    "bridge</w>": 2610,
    "hole</w>": 2611,
    "math</w>": 2612,
    "write</w>": 2613,
    "also</w>": 2614,
    "thing": 2615,
    "(`": 2616,
    "high</w>": 2617,
    "hyper": 2618,
    "context.</w>": 2619,
    "Pl": 2620,
    "No": 2621,
    "in,</w>": 2622,
    "needs</w>": 2623,
    "content": 2624,
    "ource</w>": 2625,
    "Target</w>": 2626,
    "relationship</w>": 2627,
    "e).</w>": 2628,
    "Write</w>": 2629,
    "`.</w>": 2630,
    "Mic": 2631,
    "sen": 2632,
    "1-": 2633,
    "score.</w>": 2634,
    "loop.</w>": 2635,
    "unti": 2636,
    "until</w>": 2637,
    "inc": 2638,
    "ed:</w>": 2639,
    "($S$": 2640,
    "working</w>": 2641,
    "temporary,</w>": 2642,
    "t)</w>": 2643,
    "—a</w>": 2644,
    "(L": 2645,
    "Node_ID:</w>": 2646,
    "72": 2647,
    "actual</w>": 2648,
    "architecture,</w>": 2649,
    "scrat": 2650,
    "scratch": 2651,
    "Layer:**</w>": 2652,
    "Hol": 2653,
    "Holds</w>": 2654,
    "hunks</w>": 2655,
    "connection": 2656,
    "real-": 2657,
    "time.</w>": 2658,
    "get</w>": 2659,
    "pull</w>": 2660,
    "TM": 2661,
    "control": 2662,
    "session</w>": 2663,
    "use": 2664,
    "take</w>": 2665,
    "ft</w>": 2666,
    "ount</w>": 2667,
    "edges,</w>": 2668,
    "starting</w>": 2669,
    "collect</w>": 2670,
    "And</w>": 2671,
    "replaces</w>": 2672,
    "der</w>": 2673,
    "IT</w>": 2674,
    "DE": 2675,
    "90": 2676,
    "expensive</w>": 2677,
    "LLM-": 2678,
    "line**.</w>": 2679,
    "practic": 2680,
    "ing.": 2681,
    "earli": 2682,
    "Ra": 2683,
    "Raw</w>": 2684,
    "distances</w>": 2685,
    "(Structural</w>": 2686,
    "making</w>": 2687,
    "API</w>": 2688,
    "Fil": 2689,
    "bypass</w>": 2690,
    "called</w>": 2691,
    "liter": 2692,
    "Identi": 2693,
    "Identify</w>": 2694,
    "Ch": 2695,
    "eck</w>": 2696,
    "Craw": 2697,
    "Crawl</w>": 2698,
    "connected</w>": 2699,
    "running</w>": 2700,
    "tokens.</w>": 2701,
    "never</w>": 2702,
    "ura": 2703,
    "reg": 2704,
    "chat</w>": 2705,
    "chrono": 2706,
    "chronological</w>": 2707,
    "\"sliding</w>": 2708,
    "mess": 2709,
    "It": 2710,
    "It’s</w>": 2711,
    "maintain</w>": 2712,
    "**Topological</w>": 2713,
    "piec": 2714,
    "\"Head": 2715,
    "\"Head\"</w>": 2716,
    "Mean": 2717,
    "logic</w>": 2718,
    "fill</w>": 2719,
    "defini": 2720,
    "(RAG": 2721,
    "(RAG)</w>": 2722,
    "system.</w>": 2723,
    "System</w>": 2724,
    "distin": 2725,
    "distinct</w>": 2726,
    "parameter": 2727,
    "database</w>": 2728,
    "Wor": 2729,
    "constructed</w>": 2730,
    "eline</w>": 2731,
    "sequence</w>": 2732,
    "coming</w>": 2733,
    "queries</w>": 2734,
    "split</w>": 2735,
    "$G(v)": 2736,
    "radi": 2737,
    "Once</w>": 2738,
    "complete,</w>": 2739,
    "o-": 2740,
    "Cost</w>": 2741,
    "compared</w>": 2742,
    "traversal.</w>": 2743,
    "PRO": 2744,
    "MPL": 2745,
    "np</w>": 2746,
    "faiss</w>": 2747,
    "List": 2748,
    "viron": 2749,
    "sent": 2750,
    "CO": 2751,
    "TI": 2752,
    "TION": 2753,
    "ence_": 2754,
    "SentenceTransformer</w>": 2755,
    "('": 2756,
    "Dumm": 2757,
    "\"\"\"": 2758,
    "ulation</w>": 2759,
    "random": 2760,
    "Layer:</w>": 2761,
    "self.cis_stor": 2762,
    "Dict[str,</w>": 2763,
    "idx_to": 2764,
    "idx_to_hash": 2765,
    "int,</w>": 2766,
    "_to_": 2767,
    "self.current_idx</w>": 2768,
    "text:</w>": 2769,
    "str)</w>": 2770,
    "25": 2771,
    "(text)</w>": 2772,
    "e[": 2773,
    "vector)</w>": 2774,
    "+=</w>": 2775,
    "self.dac_graph": 2776,
    ".add_node": 2777,
    ".add_node(": 2778,
    "hunk_hash)</w>": 2779,
    "parent</w>": 2780,
    "e(": 2781,
    "extracts</w>": 2782,
    "base": 2783,
    "Standard</w>": 2784,
    "OpenAI</w>": 2785,
    "count_": 2786,
    "pulls</w>": 2787,
    "Query</w>": 2788,
    "prompt_v": 2789,
    "prompt_vec": 2790,
    "distan": 2791,
    "distances": 2792,
    "nx.Graph()</w>": 2793,
    "directional</w>": 2794,
    "seed_hash": 2795,
    "i,</w>": 2796,
    "enum": 2797,
    "append": 2798,
    "list(": 2799,
    "s(": 2800,
    "give</w>": 2801,
    "1)</w>": 2802,
    "th:</w>": 2803,
    "C++</w>": 2804,
    "seam)</w>": 2805,
    "isolated</w>": 2806,
    "_scores</w>": 2807,
    "seam.": 2808,
    "(alpha</w>": 2809,
    "(beta</w>": 2810,
    "package": 2811,
    "head_": 2812,
    "],</w>": 2813,
    "visited</w>": 2814,
    "package_": 2815,
    "print(\"": 2816,
    "AL</w>": 2817,
    "heapq.heappop": 2818,
    "visited": 2819,
    "IM": 2820,
    "For": 2821,
    "T:</w>": 2822,
    "Run": 2823,
    "esting</w>": 2824,
    "...": 2825,
    "frame": 2826,
    "multiple</w>": 2827,
    "parent_hash=": 2828,
    "parent_hash=h": 2829,
    "strict</w>": 2830,
    "orchestrat": 2831,
    "Execute</w>": 2832,
    "happening</w>": 2833,
    "<J": 2834,
    "<Jac": 2835,
    "<Jacob": 2836,
    "<Jacob's</w>": 2837,
    "tun": 2838,
    "me</w>": 2839,
    "walker": 2840,
    "<the</w>": 2841,
    "**very</w>": 2842,
    "Ear": 2843,
    "operate</w>": 2844,
    "files": 2845,
    "└─</w>": 2846,
    "ing**</w>": 2847,
    "Brea": 2848,
    "es**.</w>": 2849,
    "dependency</w>": 2850,
    "chains</w>": 2851,
    "construct</w>": 2852,
    "mis": 2853,
    "Tow": 2854,
    "ency": 2855,
    "Type": 2856,
    "Layer**</w>": 2857,
    "embeddings</w>": 2858,
    "hierarch": 2859,
    "hierarchy</w>": 2860,
    "combination</w>": 2861,
    "Most</w>": 2862,
    "se:</w>": 2863,
    "referenc": 2864,
    "cc": 2865,
    "Every</w>": 2866,
    "rib": 2867,
    "31</w>": 2868,
    "inves": 2869,
    "investi": 2870,
    "investig": 2871,
    "ually</w>": 2872,
    "Reas": 2873,
    "read</w>": 2874,
    "type</w>": 2875,
    "ga": 2876,
    "verify</w>": 2877,
    "reduces</w>": 2878,
    "research</w>": 2879,
    "Par": 2880,
    "Part</w>": 2881,
    "exploration</w>": 2882,
    "explain": 2883,
    "ize</w>": 2884,
    "differ": 2885,
    "different</w>": 2886,
    "strateg": 2887,
    "Example:</w>": 2888,
    "’t</w>": 2889,
    "Answ": 2890,
    "We": 2891,
    "lifecycle</w>": 2892,
    "**one</w>": 2893,
    "ely</w>": 2894,
    "condition": 2895,
    "ator": 2896,
    "sible</w>": 2897,
    "expon": 2898,
    "exponenti": 2899,
    "naive</w>": 2900,
    "stable</w>": 2901,
    "suppor": 2902,
    "docstring</w>": 2903,
    "point</w>": 2904,
    "satis": 2905,
    "Sa": 2906,
    "condi": 2907,
    "task</w>": 2908,
    "summar": 2909,
    "ghtly</w>": 2910,
    "sufficiency</w>": 2911,
    "prevents</w>": 2912,
    "away</w>": 2913,
    "depth</w>": 2914,
    "≤</w>": 2915,
    "Dependency</w>": 2916,
    "original</w>": 2917,
    "0.6": 2918,
    "thres": 2919,
    "35</w>": 2920,
    "12</w>": 2921,
    "te.</w>": 2922,
    "trig": 2923,
    "trigg": 2924,
    "sufficient</w>": 2925,
    "turns</w>": 2926,
    "Imp": 2927,
    "scen": 2928,
    "advanc": 2929,
    "14</w>": 2930,
    "0.9": 2931,
    "22</w>": 2932,
    "identi": 2933,
    "twea": 2934,
    "intellig": 2935,
    "around</w>": 2936,
    "before</w>": 2937,
    "pas": 2938,
    "que</w>": 2939,
    "bine</w>": 2940,
    "constraint.</w>": 2941,
    "patter": 2942,
    "pattern</w>": 2943,
    "X</w>": 2944,
    "constraint</w>": 2945,
    "big</w>": 2946,
    "”)</w>": 2947,
    "facet**</w>": 2948,
    "size</w>": 2949,
    "ynthes": 2950,
    "(one</w>": 2951,
    "key</w>": 2952,
    "beha": 2953,
    "put": 2954,
    "analy": 2955,
    "Glob": 2956,
    "Global</w>": 2957,
    "closure": 2958,
    "cit": 2959,
    "bias</w>": 2960,
    "graph,</w>": 2961,
    "“heavy": 2962,
    "targ": 2963,
    "target": 2964,
    "y)</w>": 2965,
    "**evidence</w>": 2966,
    "sele": 2967,
    "item</w>": 2968,
    "penal": 2969,
    "similarity": 2970,
    "polic": 2971,
    "stic": 2972,
    "An</w>": 2973,
    "fan": 2974,
    "gradi": 2975,
    "proximity": 2976,
    "proximity**:</w>": 2977,
    "ward": 2978,
    "stop</w>": 2979,
    "approxi": 2980,
    "approxima": 2981,
    "remaining</w>": 2982,
    "(small</w>": 2983,
    "compres": 2984,
    "ction)</w>": 2985,
    "leve": 2986,
    "level</w>": 2987,
    "GraphRAG:</w>": 2988,
    "Token-Con": 2989,
    "Token-Constra": 2990,
    "Token-Constrained</w>": 2991,
    "voc": 2992,
    "vocab": 2993,
    "tif": 2994,
    "tifici": 2995,
    "Large</w>": 2996,
    "severe</w>": 2997,
    "task": 2998,
    "tasks.</w>": 2999,
    "retrieves</w>": 3000,
    "fundamentally</w>": 3001,
    "extract</w>": 3002,
    "dging</w>": 3003,
    "necess": 3004,
    "structured</w>": 3005,
    "entities</w>": 3006,
    "new": 3007,
    "of-": 3008,
    "localized</w>": 3009,
    "ata": 3010,
    "atastr": 3011,
    "atastro": 3012,
    "atastroph": 3013,
    "Key-": 3014,
    "Key-V": 3015,
    "Key-Value</w>": 3016,
    "(KV": 3017,
    "(KV)</w>": 3018,
    "iterative</w>": 3019,
    "window,</w>": 3020,
    "latency,</w>": 3021,
    "BM": 3022,
    "execut": 3023,
    "executing</w>": 3024,
    "Face": 3025,
    "Search": 3026,
    "discovery</w>": 3027,
    "undirected</w>": 3028,
    "isolates</w>": 3029,
    "achieve</w>": 3030,
    "introduces</w>": 3031,
    "Score,</w>": 3032,
    "improve": 3033,
    "ensuring</w>": 3034,
    "generation</w>": 3035,
    "complexity</w>": 3036,
    "tensors</w>": 3037,
    "ot": 3038,
    "Wher": 3039,
    "Where:</w>": 3040,
    "70": 3041,
    "Graph-CoT</w>": 3042,
    "requests</w>": 3043,
    "ously.</w>": 3044,
    "accurac": 3045,
    "econom": 3046,
    "inf": 3047,
    "exce": 3048,
    "exceed": 3049,
    "exceeds</w>": 3050,
    "GPU": 3051,
    "breach": 3052,
    "orchestration</w>": 3053,
    "CX": 3054,
    "NV": 3055,
    "hard": 3056,
    "hardware</w>": 3057,
    "15</w>": 3058,
    "ution</w>": 3059,
    "eviction</w>": 3060,
    "thfinding</w>": 3061,
    "preser": 3062,
    "topology</w>": 3063,
    "sub-millisecond</w>": 3064,
    "Discovery</w>": 3065,
    "17</w>": 3066,
    "text-": 3067,
    "\\mathbf{q": 3068,
    "\\mathbf{d": 3069,
    "\\mathbf{d}": 3070,
    "\\|": 3071,
    "}$$</w>": 3072,
    "explic": 3073,
    "Dynamic</w>": 3074,
    ")—": 3075,
    "ego": 3076,
    "subgraph": 3077,
    "ally,</w>": 3078,
    "26</w>": 3079,
    "Tw": 3080,
    "Twea": 3081,
    "Tweak</w>": 3082,
    "Dim": 3083,
    "Dimen": 3084,
    "represent": 3085,
    "representing</w>": 3086,
    "27</w>": 3087,
    "(u": 3088,
    "ability</w>": 3089,
    "$v": 3090,
    "$v$.</w>": 3091,
    "distribu": 3092,
    "verage</w>": 3093,
    "Harmon": 3094,
    "Harmonization</w>": 3095,
    "yields</w>": 3096,
    "metrics</w>": 3097,
    "linear</w>": 3098,
    "magnitude</w>": 3099,
    "0.00": 3100,
    "chn": 3101,
    "\\_score</w>": 3102,
    "Reci": 3103,
    "Recipro": 3104,
    "Reciproc": 3105,
    "Reciprocal</w>": 3106,
    "Rank</w>": 3107,
    "RRF": 3108,
    "ensures</w>": 3109,
    "ranking</w>": 3110,
    "represents</w>": 3111,
    "(Cosine</w>": 3112,
    "$\\alpha": 3113,
    "$\\beta": 3114,
    "reli": 3115,
    "Bias</w>": 3116,
    "biases</w>": 3117,
    "Vector": 3118,
    "arrays</w>": 3119,
    "Python's</w>": 3120,
    "1D</w>": 3121,
    "vectorized</w>": 3122,
    "guar": 3123,
    "guaran": 3124,
    "guarante": 3125,
    "maximu": 3126,
    "maximum</w>": 3127,
    "ele": 3128,
    "$O(\\log</w>": 3129,
    "provid": 3130,
    "BPE</w>": 3131,
    "high-spe": 3132,
    "high-speed</w>": 3133,
    "oding": 3134,
    "for_": 3135,
    "MA": 3136,
    "ree": 3137,
    "sem": 3138,
    "production-": 3139,
    "normalize_min": 3140,
    "normalize_min_": 3141,
    "normalize_min_max(": 3142,
    "scores)</w>": 3143,
    "s_max</w>": 3144,
    "global_graph": 3145,
    "doc_stor": 3146,
    "pt": 3147,
    "seam_nodes": 3148,
    "extrac": 3149,
    "extracted_": 3150,
    "V</w>": 3151,
    "Tim": 3152,
    "Time</w>": 3153,
    "milliseconds</w>": 3154,
    "Infer": 3155,
    "micros": 3156,
    "microsoft": 3157,
    "io": 3158,
    "Guide</w>": 3159,
    "Medium": 3160,
    "Medium,</w>": 3161,
    "https://medium.com/": 3162,
    "https://medium.com/@": 3163,
    "retrieval-a": 3164,
    "generation": 3165,
    "earch": 3166,
    "Scaling</w>": 3167,
    "arXiv.org,</w>": 3168,
    "https://arxiv.org/html/2602": 3169,
    "https://arxiv.org/html/2602.0": 3170,
    ".net": 3171,
    "Multi-": 3172,
    "https://arxiv.org/html/25": 3173,
    "https://arxiv.org/html/251": 3174,
    "Caching,</w>": 3175,
    "https://developer": 3176,
    "dia": 3177,
    "kv-cache-": 3178,
    "03": 3179,
    "AI-": 3180,
    "Dev": 3181,
    "e5": 3182,
    "-the-": 3183,
    "Lear": 3184,
    "search-with-": 3185,
    "faiss-": 3186,
    "efficient-": 3187,
    "ing-and-": 3188,
    "·</w>": 3189,
    "utorial": 3190,
    "program": 3191,
    "-data-": 3192,
    "python</w>": 3193,
    "Stack</w>": 3194,
    "Overf": 3195,
    "Overflow,</w>": 3196,
    "https://st": 3197,
    "https://stack": 3198,
    "https://stackover": 3199,
    "https://stackoverf": 3200,
    "https://stackoverflow": 3201,
    "https://stackoverflow.com/": 3202,
    "https://stackoverflow.com/question": 3203,
    "div": 3204,
    "df</w>": 3205,
    "65": 3206,
    "Sci": 3207,
    "Science,</w>": 3208,
    "large-": 3209,
    "az": 3210,
    "ai-": 3211,
    "Tik": 3212,
    "Tiktoken</w>": 3213,
    "Local": 3214,
    "LocalLL": 3215,
    "LocalLLa": 3216,
    "language</w>": 3217,
    "tree-sitter-c": 3218,
    "THI": 3219,
    "introduced</w>": 3220,
    "evidence\"</w>": 3221,
    "overlaying</w>": 3222,
    "manifolds</w>": 3223,
    "was": 3224,
    "wasn't</w>": 3225,
    "spin": 3226,
    "attempting</w>": 3227,
    "late</w>": 3228,
    "intuition</w>": 3229,
    "shar": 3230,
    "sharp": 3231,
    "Structural,</w>": 3232,
    "lex</w>": 3233,
    "enters</w>": 3234,
    "system,</w>": 3235,
    "aren't</w>": 3236,
    "looking</w>": 3237,
    "key": 3238,
    "spo": 3239,
    "create</w>": 3240,
    "\"gravitational</w>": 3241,
    "pull": 3242,
    "bit": 3243,
    "accurately</w>": 3244,
    "attra": 3245,
    "ractical</w>": 3246,
    "computer</w>": 3247,
    "super": 3248,
    "partic": 3249,
    "Overlay": 3250,
    "Superposition</w>": 3251,
    "matrices": 3252,
    "matrices.</w>": 3253,
    "matrix</w>": 3254,
    "built": 3255,
    "performing</w>": 3256,
    "tied</w>": 3257,
    "dense,</w>": 3258,
    "Finding</w>": 3259,
    "Heavi": 3260,
    "Heaviest</w>": 3261,
    "Bag": 3262,
    "\":</w>": 3263,
    "Centrality</w>": 3264,
    "theory,</w>": 3265,
    "known</w>": 3266,
    "cluster.</w>": 3267,
    "assign": 3268,
    "initi": 3269,
    "initial</w>": 3270,
    "(or</w>": 3271,
    "match.</w>": 3272,
    "Then": 3273,
    "Then,</w>": 3274,
    "let</w>": 3275,
    "edges.</w>": 3276,
    "accum": 3277,
    "center</w>": 3278,
    "s.\"</w>": 3279,
    "Practic": 3280,
    "Practice</w>": 3281,
    "\\gamma</w>": 3282,
    "\\delta</w>": 3283,
    "isn't</w>": 3284,
    "theore": 3285,
    "theoretic": 3286,
    "giv": 3287,
    "given</w>": 3288,
    "($v": 3289,
    "sum</w>": 3290,
    "(how</w>": 3291,
    "$\\gamma</w>": 3292,
    "$:</w>": 3293,
    "much</w>": 3294,
    "$\\delta</w>": 3295,
    "Dire": 3296,
    "imiz": 3297,
    "ation\"</w>": 3298,
    "sense</w>": 3299,
    "systems,</w>": 3300,
    "well.</w>": 3301,
    "tion.</w>": 3302,
    "clusters</w>": 3303,
    "treats</w>": 3304,
    "force</w>": 3305,
    "look": 3306,
    "codeba": 3307,
    "building</w>": 3308,
    "function.</w>": 3309,
    "onto</w>": 3310,
    "simply</w>": 3311,
    "Do": 3312,
    "Does</w>": 3313,
    "VE": 3314,
    "VED</w>": 3315,
    "absolu": 3316,
    "absolutely</w>": 3317,
    "nailed</w>": 3318,
    "compon": 3319,
    "Bottleneck</w>": 3320,
    "modern</w>": 3321,
    "\"walk\"</w>": 3322,
    "ce,</w>": 3323,
    "cache": 3324,
    "either</w>": 3325,
    "start</w>": 3326,
    "Use": 3327,
    "RI": 3328,
    "PT": 3329,
    "Mind": 3330,
    "disp": 3331,
    "micro-": 3332,
    "looks</w>": 3333,
    "tiny</w>": 3334,
    "direc": 3335,
    "paralle": 3336,
    "handles</w>": 3337,
    "isualiz": 3338,
    "holding</w>": 3339,
    "ulating</w>": 3340,
    "fix": 3341,
    "fixed</w>": 3342,
    "agent's</w>": 3343,
    "persona,</w>": 3344,
    "avail": 3345,
    "available</w>": 3346,
    "tools,</w>": 3347,
    "imme": 3348,
    "immedi": 3349,
    "immediate</w>": 3350,
    "\"N": 3351,
    "\"Nor": 3352,
    "\"North</w>": 3353,
    "Star\"</w>": 3354,
    "keeps</w>": 3355,
    "ternal</w>": 3356,
    "Map):**</w>": 3357,
    "immutable</w>": 3358,
    "**Session</w>": 3359,
    "Manifold</w>": 3360,
    "walks</w>": 3361,
    "writes</w>": 3362,
    "dynamic,</w>": 3363,
    "growing</w>": 3364,
    "le\"</w>": 3365,
    "Density": 3366,
    "Density)</w>": 3367,
    "getting</w>": 3368,
    "er\"</w>": 3369,
    "trying</w>": 3370,
    "laying</w>": 3371,
    "litt": 3372,
    "little</w>": 3373,
    "Ano": 3374,
    "Another</w>": 3375,
    "linked</w>": 3376,
    "`)</w>": 3377,
    "ulat": 3378,
    "spaw": 3379,
    "ned</w>": 3380,
    "hyper-": 3381,
    "specific,</w>": 3382,
    "Not</w>": 3383,
    "ed-d": 3384,
    "own</w>": 3385,
    "(Python</w>": 3386,
    "Define</w>": 3387,
    "(needs</w>": 3388,
    "content,</w>": 3389,
    "e`</w>": 3390,
    "αS</w>": 3391,
    "βT</w>": 3392,
    "γC</w>": 3393,
    "δQ": 3394,
    "Call": 3395,
    "takes</w>": 3396,
    "Nod": 3397,
    "API,</w>": 3398,
    "asks</w>": 3399,
    "4:</w>": 3400,
    "dates</w>": 3401,
    "increas": 3402,
    "in.</w>": 3403,
    "limits,</w>": 3404,
    "reasoning.</w>": 3405,
    "respond": 3406,
    "responded:</w>": 3407,
    "4-layer</w>": 3408,
    "exists</w>": 3409,
    "massive,</w>": 3410,
    "cannot</w>": 3411,
    "(and</w>": 3412,
    "lives</w>": 3413,
    "fast": 3414,
    "pop": 3415,
    "(Node</w>": 3416,
    "holds": 3417,
    "holds:**</w>": 3418,
    "`Node_ID:</w>": 3419,
    "8472": 3420,
    "`,</w>": 3421,
    "Cur": 3422,
    "Curr": 3423,
    "Gravity_": 3424,
    "asso": 3425,
    "associ": 3426,
    "associated</w>": 3427,
    "vola": 3428,
    "volati": 3429,
    "at.</w>": 3430,
    "math.</w>": 3431,
    "cosine</w>": 3432,
    "here.</w>": 3433,
    "connections,</w>": 3434,
    "draw</w>": 3435,
    "map</w>": 3436,
    "trac": 3437,
    "tracks</w>": 3438,
    "expanding</w>": 3439,
    "heavier</w>": 3440,
    "Lif": 3441,
    "lifecycle": 3442,
    "question.</w>": 3443,
    "**Exp": 3444,
    "clear</w>": 3445,
    "keeping</w>": 3446,
    "fast</w>": 3447,
    "integr": 3448,
    "Would</w>": 3449,
    "draft</w>": 3450,
    "jec": 3451,
    "see</w>": 3452,
    "holds</w>": 3453,
    "amount</w>": 3454,
    "request": 3455,
    "even</w>": 3456,
    "back": 3457,
    "backw": 3458,
    "backwards</w>": 3459,
    "till</w>": 3460,
    "full</w>": 3461,
    "THEN": 3462,
    "RE": 3463,
    "DED": 3464,
    "lem</w>": 3465,
    "ved</w>": 3466,
    "slow,</w>": 3467,
    "**Graph</w>": 3468,
    "pipe": 3469,
    "realiz": 3470,
    "forward</w>": 3471,
    "connection</w>": 3472,
    "(like</w>": 3473,
    "tal": 3474,
    "talking</w>": 3475,
    "pure</w>": 3476,
    "Hunk": 3477,
    "\"hunks\"</w>": 3478,
    "calculates</w>": 3479,
    "(Semantic</w>": 3480,
    "counts</w>": 3481,
    "connections</w>": 3482,
    "forms</w>": 3483,
    "nodes)</w>": 3484,
    "ys</w>": 3485,
    "\"Ag": 3486,
    "\"Agent-": 3487,
    "\"Agent-S": 3488,
    "\"Agent-Sized</w>": 3489,
    "Package": 3490,
    "Package\"</w>": 3491,
    "collecting</w>": 3492,
    "limit.</w>": 3493,
    "Find</w>": 3494,
    "Check</w>": 3495,
    "bb": 3496,
    "tally</w>": 3497,
    "uto": 3498,
    "delivered</w>": 3499,
    "Window</w>": 3500,
    "regar": 3501,
    "regarding</w>": 3502,
    "ditional</w>": 3503,
    "message</w>": 3504,
    "forever": 3505,
    "forever.</w>": 3506,
    "terri": 3507,
    "terrible</w>": 3508,
    "way</w>": 3509,
    "Window**.</w>": 3510,
    "care</w>": 3511,
    "order</w>": 3512,
    "history.</w>": 3513,
    "piece</w>": 3514,
    "years</w>": 3515,
    "ago</w>": 3516,
    "seaml": 3517,
    "rem": 3518,
    "seconds</w>": 3519,
    "Means</w>": 3520,
    "sely.</w>": 3521,
    "multi-agent</w>": 3522,
    "edges": 3523,
    "definition</w>": 3524,
    "definitive</w>": 3525,
    "Sp": 3526,
    "Defini": 3527,
    "Definition": 3528,
    "Architectur": 3529,
    "Architecture</w>": 3530,
    "window\"</w>": 3531,
    "pure": 3532,
    "State": 3533,
    "k.</w>": 3534,
    "consist": 3535,
    "alter": 3536,
    "altered</w>": 3537,
    "Manifold": 3538,
    "Pip": 3539,
    "Pipeline</w>": 3540,
    "Mechan": 3541,
    "lying</w>": 3542,
    "traversal:</w>": 3543,
    "generates</w>": 3544,
    "locate</w>": 3545,
    "($G(v)": 3546,
    "($G(v)$": 3547,
    "assi": 3548,
    "calculated</w>": 3549,
    "$$G(v)</w>": 3550,
    "S$</w>": 3551,
    "T$</w>": 3552,
    "context,</w>": 3553,
    "(KV</w>": 3554,
    "extraction": 3555,
    "Head</w>": 3556,
    "LLM's</w>": 3557,
    "comm": 3558,
    "itted</w>": 3559,
    "learn": 3560,
    "ing)</w>": 3561,
    "Hal": 3562,
    "Hallucin": 3563,
    "eli": 3564,
    "elimin": 3565,
    "instantane": 3566,
    "efficient": 3567,
    "AND</w>": 3568,
    "AMPL": 3569,
    "CON": 3570,
    "CE": 3571,
    "IN</w>": 3572,
    "US": 3573,
    "EX": 3574,
    "hashli": 3575,
    "networkx</w>": 3576,
    "nx</w>": 3577,
    "typing</w>": 3578,
    "List,</w>": 3579,
    "Dict,</w>": 3580,
    "TE:</w>": 3581,
    "real</w>": 3582,
    "environ": 3583,
    "environment": 3584,
    "sentence-": 3585,
    "sentence-transform": 3586,
    "loading</w>": 3587,
    "models,</w>": 3588,
    "MEN": 3589,
    "UC": 3590,
    "TION:</w>": 3591,
    "encoder</w>": 3592,
    "6-": 3593,
    "')</w>": 3594,
    "Dummy": 3595,
    "DummyEn": 3596,
    "DummyEncod": 3597,
    "local</w>": 3598,
    "ly.": 3599,
    "Generates</w>": 3600,
    "length</w>": 3601,
    "np.random": 3602,
    "np.random.": 3603,
    "384": 3604,
    "ast": 3605,
    "Im": 3606,
    "Imm": 3607,
    "Immut": 3608,
    "(Semantic": 3609,
    "(Structural": 3610,
    "__in": 3611,
    "__init": 3612,
    "__init__": 3613,
    "__init__(self,</w>": 3614,
    "embedding_dim": 3615,
    "Repl": 3616,
    "Replac": 3617,
    "embedding_dim</w>": 3618,
    "dres": 3619,
    "self.cis_store:</w>": 3620,
    "str]</w>": 3621,
    "(In": 3622,
    "(Inner</w>": 3623,
    "Product</w>": 3624,
    "Similarity)</w>": 3625,
    "self.faiss_index": 3626,
    "faiss.Index": 3627,
    "nx.Di": 3628,
    "nx.DiGraph": 3629,
    "Master</w>": 3630,
    "integer</w>": 3631,
    "Hash": 3632,
    "self.idx_to_hash": 3633,
    "Dict[int,</w>": 3634,
    "self.hash": 3635,
    "self.hash_to_": 3636,
    "self.hash_to_idx": 3637,
    "generate": 3638,
    "generate_hash": 3639,
    "Creates</w>": 3640,
    "Mer": 3641,
    "dig": 3642,
    "str</w>": 3643,
    "Non": 3644,
    "None)</w>": 3645,
    "hunk</w>": 3646,
    "hunk_hash]</w>": 3647,
    "encoder.encode(": 3648,
    "encoder.encode([": 3649,
    ".add": 3650,
    ".add(": 3651,
    "Up": 3652,
    "idx]</w>": 3653,
    "parent_hash</w>": 3654,
    "Create</w>": 3655,
    ".add_edg": 3656,
    ".add_edge(": 3657,
    "Topologic": 3658,
    "Topological": 3659,
    "TopologicalOrchestrator": 3660,
    "Eng": 3661,
    "Neuronal</w>": 3662,
    "Gravity,</w>": 3663,
    "500": 3664,
    "self.max_": 3665,
    "cl": 3666,
    "_count_": 3667,
    "_count_tokens": 3668,
    "tokenizer.encode(": 3669,
    "text))</w>": 3670,
    "build_": 3671,
    "build_session_seam": 3672,
    "prompt:</w>": 3673,
    "top_k_semantic": 3674,
    "5)</w>": 3675,
    "sition:</w>": 3676,
    "matches,</w>": 3677,
    "(F": 3678,
    "FAISS)</w>": 3679,
    "distances,</w>": 3680,
    "indices</w>": 3681,
    "faiss_index.": 3682,
    "faiss_index.search": 3683,
    "faiss_index.search(": 3684,
    "Undirected</w>": 3685,
    "flow</w>": 3686,
    "[]</w>": 3687,
    "enumer": 3688,
    "enumerate": 3689,
    "enumerate(": 3690,
    "indices": 3691,
    "[0": 3692,
    "[0]": 3693,
    "continue</w>": 3694,
    ".append": 3695,
    ".append(": 3696,
    "seam.add_node(": 3697,
    "seed</w>": 3698,
    "list(self.ds.": 3699,
    "list(self.ds.d": 3700,
    "list(self.ds.dac_graph": 3701,
    "list(self.ds.dac_graph.": 3702,
    "s(seed": 3703,
    "s(seed))</w>": 3704,
    "seam:</w>": 3705,
    "semantic_score": 3706,
    "nx.Graph,</w>": 3707,
    "2.0": 3708,
    "Executes</w>": 3709,
    "len(seam)</w>": 3710,
    "Calculate</w>": 3711,
    "structural": 3712,
    "nx.pagerank": 3713,
    "nx.pagerank(": 3714,
    "seam.nodes": 3715,
    "0.0)</w>": 3716,
    "foc": 3717,
    "extract": 3718,
    "extract_": 3719,
    "extract_ag": 3720,
    "extract_agent_": 3721,
    "extract_agent_package": 3722,
    "fill": 3723,
    "(prompt": 3724,
    "(prompt)</w>": 3725,
    "\"No</w>": 3726,
    "Evid": 3727,
    "tupl": 3728,
    "min-": 3729,
    "priority_queue</w>": 3730,
    "(-gravity_scores[": 3731,
    "head_node": 3732,
    "TRA": 3733,
    "VER": 3734,
    "self.max_tokens:</w>": 3735,
    "neg_": 3736,
    "neg_grav": 3737,
    "current_node</w>": 3738,
    "heapq.heappop(": 3739,
    "priority_queu": 3740,
    "visited:</w>": 3741,
    "Lim": 3742,
    "Limit</w>": 3743,
    "print(f\"[": 3744,
    "AC": 3745,
    "{current_node": 3746,
    "{current_node[": 3747,
    "{current_node[:": 3748,
    "{current_node[:6": 3749,
    "{current_node[:6]": 3750,
    "{current_node[:6]}</w>": 3751,
    "{tokens": 3752,
    "package_hunk": 3753,
    "heapq.heappush": 3754,
    "heapq.heappush(": 3755,
    "compile": 3756,
    "compiled_": 3757,
    "\"\\n\\n": 3758,
    "\"\\n\\n---": 3759,
    "\"\\n\\n---\\n\\n": 3760,
    "\"\\n\\n---\\n\\n\"": 3761,
    "\"\\n\\n---\\n\\n\".": 3762,
    "\"\\n\\n---\\n\\n\".j": 3763,
    "\"\\n\\n---\\n\\n\".jo": 3764,
    "\"\\n\\n---\\n\\n\".join": 3765,
    "\"\\n\\n---\\n\\n\".join(": 3766,
    "TEX": 3767,
    "D:": 3768,
    "{prompt": 3769,
    "{prompt}": 3770,
    "SIM": 3771,
    "Running</w>": 3772,
    "ome</w>": 3773,
    "Persist": 3774,
    "Persistent</w>": 3775,
    "Datab": 3776,
    "Agen": 3777,
    "Agentic</w>": 3778,
    "Sw": 3779,
    "independ": 3780,
    ".\",</w>": 3781,
    "density": 3782,
    "Us": 3783,
    "User</w>": 3784,
    "you'd</w>": 3785,
    "like,</w>": 3786,
    "explain</w>": 3787,
    "agents,</w>": 3788,
    "you're</w>": 3789,
    "dd": 3790,
    "LOL": 3791,
    "LOL.</w>": 3792,
    "tric": 3793,
    "trick</w>": 3794,
    "BU": 3795,
    "my</w>": 3796,
    "Fa": 3797,
    "I’": 3798,
    "Shift</w>": 3799,
    "appen": 3800,
    "Early</w>": 3801,
    "**files": 3802,
    "repo</w>": 3803,
    "Applies</w>": 3804,
    "basi": 3805,
    "basical": 3806,
    "basically:</w>": 3807,
    "osit": 3808,
    "ositor": 3809,
    "ositories</w>": 3810,
    "shared</w>": 3811,
    "pattern": 3812,
    "antly</w>": 3813,
    "hallucinated</w>": 3814,
    "understand": 3815,
    "Are</w>": 3816,
    "Function": 3817,
    "FunctionNode</w>": 3818,
    "Dependency": 3819,
    "DependencyNode</w>": 3820,
    "relationships": 3821,
    "**four</w>": 3822,
    "**Verbatim</w>": 3823,
    "**Semantic</w>": 3824,
    "**Structural</w>": 3825,
    "DAG": 3826,
    "DAG</w>": 3827,
    "powerful": 3828,
    "Ide": 3829,
    "Idea</w>": 3830,
    "Power": 3831,
    "“Which</w>": 3832,
    "answer?”</w>": 3833,
    "asks:</w>": 3834,
    "described</w>": 3835,
    "Ba": 3836,
    "Basically</w>": 3837,
    "E-014</w>": 3838,
    "E-": 3839,
    "E-02": 3840,
    "idea": 3841,
    "stron": 3842,
    "strong": 3843,
    "uman": 3844,
    "umans</w>": 3845,
    "confir": 3846,
    "comment</w>": 3847,
    "**graph</w>": 3848,
    "gather</w>": 3849,
    "build</w>": 3850,
    "chain</w>": 3851,
    "answers</w>": 3852,
    "ground": 3853,
    "grounded</w>": 3854,
    "alized</w>": 3855,
    "meaning</w>": 3856,
    "do:</w>": 3857,
    "closer</w>": 3858,
    "to:</w>": 3859,
    "**not</w>": 3860,
    "controlled</w>": 3861,
    "Expl": 3862,
    "meaning": 3863,
    "cho": 3864,
    "strategi": 3865,
    "Go": 3866,
    "cited</w>": 3867,
    "n’t</w>": 3868,
    "basically</w>": 3869,
    "sor</w>": 3870,
    "thing</w>": 3871,
    "discus": 3872,
    "scope</w>": 3873,
    "Those</w>": 3874,
    "**disc": 3875,
    "**discip": 3876,
    "**discipline**.</w>": 3877,
    "Without</w>": 3878,
    "Ment": 3879,
    "Mental</w>": 3880,
    "rough": 3881,
    "’ve</w>": 3882,
    "**the</w>": 3883,
    "strate</w>": 3884,
    "bey": 3885,
    "beyon": 3886,
    "beyond</w>": 3887,
    "ounding</w>": 3888,
    "t**</w>": 3889,
    "likely</w>": 3890,
    "almost</w>": 3891,
    "deci": 3892,
    "decision</w>": 3893,
    "ether</w>": 3894,
    "becom": 3895,
    "powerful</w>": 3896,
    "infin": 3897,
    "infinit": 3898,
    "infinite</w>": 3899,
    "mach": 3900,
    "event": 3901,
    "eventually</w>": 3902,
    "wander": 3903,
    "ing**.</w>": 3904,
    "doing</w>": 3905,
    "form</w>": 3906,
    "search**.</w>": 3907,
    "Prob": 3908,
    "starts</w>": 3909,
    "move</w>": 3910,
    "several</w>": 3911,
    "possible</w>": 3912,
    "this:</w>": 3913,
    "colla": 3914,
    "collap": 3915,
    "collapse.</w>": 3916,
    "Termin": 3917,
    "Termination</w>": 3918,
    "stopp": 3919,
    "stopping</w>": 3920,
    "supports</w>": 3921,
    "Sufficiency</w>": 3922,
    "rule": 3923,
    "Explain</w>": 3924,
    "process_": 3925,
    "process_data</w>": 3926,
    "At</w>": 3927,
    "contain": 3928,
    "faction</w>": 3929,
    "condition</w>": 3930,
    "is:</w>": 3931,
    "led": 3932,
    "slightly</w>": 3933,
    "fficienc": 3934,
    "runaway</w>": 3935,
    "hops</w>": 3936,
    "too</w>": 3937,
    "Relev": 3938,
    "Relevance</w>": 3939,
    "far": 3940,
    "drop": 3941,
    "0.65</w>": 3942,
    "below</w>": 3943,
    "threshold": 3944,
    "Exhaus": 3945,
    "Exhaustion</w>": 3946,
    "compu": 3947,
    "**any</w>": 3948,
    "exhaus": 3949,
    "exhausted</w>": 3950,
    "creates</w>": 3951,
    "Bin": 3952,
    "Bind</w>": 3953,
    "termination": 3954,
    "expand</w>": 3955,
    "candidate</w>": 3956,
    "could</w>": 3957,
    "dete": 3958,
    "detective</w>": 3959,
    "advanced</w>": 3960,
    "scoring**</w>": 3961,
    "frontier": 3962,
    "--------": 3963,
    "0.92</w>": 3964,
    "expands</w>": 3965,
    "irst": 3966,
    "identifi": 3967,
    "tweak": 3968,
    "matically</w>": 3969,
    "parts</w>": 3970,
    "Be": 3971,
    "............": 3972,
    "tique</w>": 3973,
    "hel": 3974,
    "(</w>": 3975,
    ".....": 3976,
    "itera": 3977,
    "combining</w>": 3978,
    "kv</w>": 3979,
    "no</w>": 3980,
    "inference.</w>": 3981,
    "required</w>": 3982,
    "clean</w>": 3983,
    "**Intent</w>": 3984,
    "facets**</w>": 3985,
    "chunks": 3986,
    "Combine</w>": 3987,
    "Plan": 3988,
    "Rou": 3989,
    "Router": 3990,
    "Router**</w>": 3991,
    "(what</w>": 3992,
    "go</w>": 3993,
    "bounded": 3994,
    "bounded)</w>": 3995,
    "**Synthes": 3996,
    "y/": 3997,
    "tight": 3998,
    "tighten</w>": 3999,
    "implies</w>": 4000,
    "ing;</w>": 4001,
    "decompo": 4002,
    "decomposition": 4003,
    "”:</w>": 4004,
    "puts/": 4005,
    "contra": 4006,
    "from": 4007,
    "failure</w>": 4008,
    "analysi": 4009,
    "dependenc": 4010,
    "gate</w>": 4011,
    "**Lay": 4012,
    "**Layer</w>": 4013,
    "process</w>": 4014,
    "summaries</w>": 4015,
    "(not</w>": 4016,
    "plu": 4017,
    "expansions</w>": 4018,
    "inste": 4019,
    "instead</w>": 4020,
    "referenced</w>": 4021,
    "unc": 4022,
    "uncer": 4023,
    "uncerta": 4024,
    "uncertaint": 4025,
    "fiel": 4026,
    "field": 4027,
    "ignore</w>": 4028,
    "`E-01": 4029,
    "selected</w>": 4030,
    "`E-0": 4031,
    "31": 4032,
    "gravity_": 4033,
    "−</w>": 4034,
    "penalty</w>": 4035,
    "redund": 4036,
    "y**</w>": 4037,
    "frequ": 4038,
    "frequently</w>": 4039,
    "behaving</w>": 4040,
    "jump": 4041,
    "Her": 4042,
    "Here": 4043,
    "Here’s</w>": 4044,
    "implement</w>": 4045,
    "**Is</w>": 4046,
    "match</w>": 4047,
    "tion,</w>": 4048,
    "ure,</w>": 4049,
    "failing</w>": 4050,
    "fan-": 4051,
    "med</w>": 4052,
    "gradient": 4053,
    "4-D</w>": 4054,
    "interse": 4055,
    "compute</w>": 4056,
    "path</w>": 4057,
    "ers,</w>": 4058,
    "strings</w>": 4059,
    "mea": 4060,
    "east</w>": 4061,
    "“Is</w>": 4062,
    "most": 4063,
    "marg": 4064,
    "ging</w>": 4065,
    "missing</w>": 4066,
    "ific": 4067,
    "packer**</w>": 4068,
    "determinis": 4069,
    "deterministic": 4070,
    "once</w>": 4071,
    "-level</w>": 4072,
    "al.</w>": 4073,
    "19</w>": 4074,
    "Bypas": 4075,
    "Mathematic": 4076,
    "tificial</w>": 4077,
    "intelligence,</w>": 4078,
    "sta": 4079,
    "tic,</w>": 4080,
    "parametric": 4081,
    "parametric</w>": 4082,
    "dynamic</w>": 4083,
    "engin": 4084,
    "engines</w>": 4085,
    "verifi": 4086,
    "exclu": 4087,
    "exclusively</w>": 4088,
    "exhi": 4089,
    "vocabul": 4090,
    "vocabulary</w>": 4091,
    "tiv": 4092,
    "\"A</w>": 4093,
    "correlates</w>": 4094,
    "bridging</w>": 4095,
    "necessary</w>": 4096,
    "dedu": 4097,
    "deduce</w>": 4098,
    "indu": 4099,
    "industr": 4100,
    "industry</w>": 4101,
    "aggres": 4102,
    "aggressively</w>": 4103,
    "ara": 4104,
    "information</w>": 4105,
    "utes.</w>": 4106,
    "GraphRAG,</w>": 4107,
    "however,</w>": 4108,
    "engine.</w>": 4109,
    "Cha": 4110,
    "Chain-": 4111,
    "Chain-of-": 4112,
    "Chain-of-Th": 4113,
    "Chain-of-Thought</w>": 4114,
    "fed</w>": 4115,
    "flexib": 4116,
    "LLM-driven</w>": 4117,
    "catastroph": 4118,
    "catastrophic</w>": 4119,
    "driving</w>": 4120,
    "ust": 4121,
    "band": 4122,
    "wid": 4123,
    "width</w>": 4124,
    "(HBM": 4125,
    "Facebo": 4126,
    "Facebook</w>": 4127,
    "construction</w>": 4128,
    "\"Session</w>": 4129,
    "harmon": 4130,
    "S$)</w>": 4131,
    "T$).</w>": 4132,
    "rigor": 4133,
    "throughput</w>": 4134,
    "improvements</w>": 4135,
    "restri": 4136,
    "strictly</w>": 4137,
    "valid": 4138,
    "understand</w>": 4139,
    "traversal,</w>": 4140,
    "specifically</w>": 4141,
    "cache.</w>": 4142,
    "utore": 4143,
    "utoregres": 4144,
    "utoregressive</w>": 4145,
    "tend</w>": 4146,
    "previ": 4147,
    "processed</w>": 4148,
    "ations.</w>": 4149,
    "historical</w>": 4150,
    "11</w>": 4151,
    "cir": 4152,
    "circ": 4153,
    "circum": 4154,
    "circumv": 4155,
    "model.</w>": 4156,
    "mechanis": 4157,
    "mechanism</w>": 4158,
    "avo": 4159,
    "avoid": 4160,
    "scales</w>": 4161,
    "bat": 4162,
    "batch</w>": 4163,
    "Memory_": 4164,
    "n_{layer": 4165,
    "n_{layers": 4166,
    "n_{head": 4167,
    "n_{heads": 4168,
    "d_{": 4169,
    "d_{head": 4170,
    "2$</w>": 4171,
    "head.</w>": 4172,
    "$L": 4173,
    "precision</w>": 4174,
    "te-": 4175,
    "vari": 4176,
    "drastic": 4177,
    "28": 4178,
    "-b": 4179,
    "meter</w>": 4180,
    "igab": 4181,
    "igaby": 4182,
    "loy</w>": 4183,
    "framework": 4184,
    "forces</w>": 4185,
    "ies,</w>": 4186,
    "achieving</w>": 4187,
    "often</w>": 4188,
    "requires</w>": 4189,
    "40": 4190,
    "Using</w>": 4191,
    "erci": 4192,
    "application": 4193,
    "Fur": 4194,
    "Further": 4195,
    "Furthermor": 4196,
    "Furthermore,</w>": 4197,
    "GPU's</w>": 4198,
    "(su": 4199,
    "(such</w>": 4200,
    "forced</w>": 4201,
    "degra": 4202,
    "operational</w>": 4203,
    "d)</w>": 4204,
    "er,</w>": 4205,
    "shears</w>": 4206,
    "aging</w>": 4207,
    "PCI": 4208,
    "CXL</w>": 4209,
    "Compute</w>": 4210,
    "L)</w>": 4211,
    "off": 4212,
    "remains</w>": 4213,
    "native</w>": 4214,
    "Algorith": 4215,
    "solution</w>": 4216,
    "pathfinding</w>": 4217,
    "prefill</w>": 4218,
    "search,</w>": 4219,
    "sed,</w>": 4220,
    "sent</w>": 4221,
    "90%": 4222,
    "90%,</w>": 4223,
    "preserving</w>": 4224,
    "overall</w>": 4225,
    "pla": 4226,
    "play</w>": 4227,
    "overhead</w>": 4228,
    "in-memory</w>": 4229,
    "NetworkX.</w>": 4230,
    "clustering</w>": 4231,
    "vectors.</w>": 4232,
    "allows</w>": 4233,
    "3-": 4234,
    "mapping</w>": 4235,
    "textual</w>": 4236,
    "high-dimensional</w>": 4237,
    "top-$": 4238,
    "k$</w>": 4239,
    "product</w>": 4240,
    "$\\mathbf{": 4241,
    "Cosine": 4242,
    "\\mathbf{q}": 4243,
    "designated</w>": 4244,
    "represent</w>": 4245,
    "explicit</w>": 4246,
    "operates</w>": 4247,
    "flat": 4248,
    "unstructured</w>": 4249,
    "posses": 4250,
    "B,</w>": 4251,
    "may</w>": 4252,
    "Seams</w>": 4253,
    "transi": 4254,
    "reh": 4255,
    "rehensive</w>": 4256,
    "stu": 4257,
    "traversing</w>": 4258,
    "-F": 4259,
    "-First</w>": 4260,
    "expansion</w>": 4261,
    "$N": 4262,
    "Cru": 4263,
    "Cruci": 4264,
    "Crucially,</w>": 4265,
    "Sta": 4266,
    "Static</w>": 4267,
    "rig": 4268,
    "inher": 4269,
    "inherently</w>": 4270,
    "estab": 4271,
    "establi": 4272,
    "establish": 4273,
    "boundary</w>": 4274,
    "second": 4275,
    "parate</w>": 4276,
    "importanc": 4277,
    "importance.</w>": 4278,
    "Is": 4279,
    "quanti": 4280,
    "$u": 4281,
    "\\frac{1": 4282,
    "B(u": 4283,
    "(v)": 4284,
    "damp": 4285,
    "damping</w>": 4286,
    "factor</w>": 4287,
    "5,</w>": 4288,
    "probability</w>": 4289,
    "continues</w>": 4290,
    "set</w>": 4291,
    "distribution</w>": 4292,
    "als</w>": 4293,
    "1.0.</w>": 4294,
    "Consequ": 4295,
    "Consequent": 4296,
    "Consequently,</w>": 4297,
    "500</w>": 4298,
    "small": 4299,
    "push": 4300,
    "push</w>": 4301,
    "Dimension": 4302,
    "Dimensional</w>": 4303,
    "$,</w>": 4304,
    "topology,</w>": 4305,
    "resolve</w>": 4306,
    "requirement": 4307,
    "33</w>": 4308,
    "confli": 4309,
    "implements</w>": 4310,
    "techn": 4311,
    "fit</w>": 4312,
    "propor": 4313,
    "proportion": 4314,
    "relative</w>": 4315,
    "min\\": 4316,
    "min\\_score": 4317,
    "4.3</w>": 4318,
    "Altern": 4319,
    "(RRF": 4320,
    "RRF</w>": 4321,
    "0,</w>": 4322,
    "iden": 4323,
    "Normalized</w>": 4324,
    "(S)</w>": 4325,
    "(T)</w>": 4326,
    "0.00</w>": 4327,
    "1.00</w>": 4328,
    "Bri": 4329,
    "ise": 4330,
    "implementation</w>": 4331,
    "models</w>": 4332,
    "$\\alpha$</w>": 4333,
    "$\\beta$</w>": 4334,
    "Para": 4335,
    "Tun": 4336,
    "Tuning</w>": 4337,
    "reliance</w>": 4338,
    "$):</w>": 4339,
    "?\"": 4340,
    "?\"),</w>": 4341,
    "elev": 4342,
    "rout": 4343,
    "38</w>": 4344,
    "acken": 4345,
    "(G": 4346,
    "Sing": 4347,
    "Single</w>": 4348,
    "calculate_gravity(pagerank_scor": 4349,
    "calculate_gravity(pagerank_scores:</w>": 4350,
    "cosine_scores:</w>": 4351,
    "0.5,</w>": 4352,
    "0.5)</w>": 4353,
    "Computes</w>": 4354,
    "T.</w>": 4355,
    "Expect": 4356,
    "Expects</w>": 4357,
    "pre-normalized</w>": 4358,
    "Similarity).</w>": 4359,
    "(np.ndarray": 4360,
    "(np.ndarray):</w>": 4361,
    "(float": 4362,
    "(float):</w>": 4363,
    "Weight</w>": 4364,
    "np.asarray(pagerank_scor": 4365,
    "np.asarray(pagerank_scores,</w>": 4366,
    "np.asarray(cosine_": 4367,
    "np.asarray(cosine_scores,</w>": 4368,
    "Vectorized</w>": 4369,
    "fusion</w>": 4370,
    "signals</w>": 4371,
    "guarantees</w>": 4372,
    "algorithmic</w>": 4373,
    "$O(1": 4374,
    "$O(1)$</w>": 4375,
    "observ": 4376,
    "observable</w>": 4377,
    "K$</w>": 4378,
    "limits": 4379,
    "-word</w>": 4380,
    "fla": 4381,
    "flaw": 4382,
    "consume</w>": 4383,
    "sil": 4384,
    "ses.</w>": 4385,
    "6.1</w>": 4386,
    "breaching</w>": 4387,
    "44</w>": 4388,
    "heap,</w>": 4389,
    "provides</w>": 4390,
    "integra": 4391,
    "tiktoken.enc": 4392,
    "tiktoken.encoding": 4393,
    "tiktoken.encoding_": 4394,
    "tiktoken.encoding_for_": 4395,
    "tiktoken.encoding_for_model": 4396,
    "Retrieve</w>": 4397,
    "Encode</w>": 4398,
    "<=</w>": 4399,
    "reedi": 4400,
    "reedily</w>": 4401,
    "ly-": 4402,
    "sat": 4403,
    "satura": 4404,
    "saturated</w>": 4405,
    "est-": 4406,
    "assem": 4407,
    "triggering</w>": 4408,
    "truncation.</w>": 4409,
    "performan": 4410,
    "block</w>": 4411,
    "again": 4412,
    "against</w>": 4413,
    "zero-": 4414,
    "s_m": 4415,
    "s_min</w>": 4416,
    "s_min": 4417,
    "s_min)</w>": 4418,
    "global_graph:</w>": 4419,
    "target_": 4420,
    "target_llm": 4421,
    "-4": 4422,
    "top_k_anchor": 4423,
    "hop_": 4424,
    "hop_dep": 4425,
    "L2</w>": 4426,
    "embedder.encode(": 4427,
    "query_vector": 4428,
    "anchor_": 4429,
    ".to": 4430,
    "Constru": 4431,
    "Construction</w>": 4432,
    "session_seam</w>": 4433,
    "BFS</w>": 4434,
    "session_seam,</w>": 4435,
    "found</w>": 4436,
    "pr_di": 4437,
    "raw_pr": 4438,
    "np.array(": 4439,
    "np.array([": 4440,
    "seam_nodes])</w>": 4441,
    "seam_embedding": 4442,
    "raw_cos": 4443,
    "S_": 4444,
    "_scores)</w>": 4445,
    "T_": 4446,
    "normalized,</w>": 4447,
    "max_heap</w>": 4448,
    "node_id</w>": 4449,
    "g_scor": 4450,
    "g_score,</w>": 4451,
    "node_id": 4452,
    "13</w>": 4453,
    "extracted_subgraph": 4454,
    "As": 4455,
    "prist": 4456,
    "pristine</w>": 4457,
    "final_context</w>": 4458,
    "Analy": 4459,
    "lications</w>": 4460,
    "Lat": 4461,
    "Latency</w>": 4462,
    "time,</w>": 4463,
    "$O(V</w>": 4464,
    "E)$</w>": 4465,
    "Comple": 4466,
    "Average</w>": 4467,
    "invok": 4468,
    "reduc": 4469,
    "3%</w>": 4470,
    "an,</w>": 4471,
    "43</w>": 4472,
    "reduction": 4473,
    "reductions</w>": 4474,
    "89": 4475,
    "Inference</w>": 4476,
    "lication</w>": 4477,
    "ining</w>": 4478,
    "logically</w>": 4479,
    "eb": 4480,
    "guid": 4481,
    "guide-": 4482,
    "guide-to-": 4483,
    "-retrieval-a": 4484,
    "-retrieval-augmen": 4485,
    "-retrieval-augmente": 4486,
    "-retrieval-augmented-": 4487,
    "-retrieval-augmented-generation": 4488,
    "non": 4489,
    "nona": 4490,
    "nonato": 4491,
    "nonatof": 4492,
    "nonatofabi": 4493,
    "nonatofabio": 4494,
    "nonatofabio/": 4495,
    "nonatofabio/local": 4496,
    "nonatofabio/local-": 4497,
    "nonatofabio/local-graphrag-": 4498,
    "nonatofabio/local-graphrag-m": 4499,
    "nonatofabio/local-graphrag-mc": 4500,
    "nonatofabio/local-graphrag-mcp</w>": 4501,
    "Code": 4502,
    "Camp": 4503,
    "Camp,</w>": 4504,
    "how-to-": 4505,
    "-5": 4506,
    "-5-": 4507,
    "narra": 4508,
    "priv": 4509,
    "Micros": 4510,
    "Microsof": 4511,
    "Microsoft</w>": 4512,
    "Research": 4513,
    "microsoft.com/": 4514,
    "microsoft.com/en": 4515,
    "microsoft.com/en-": 4516,
    "microsoft.com/en-us": 4517,
    "microsoft.com/en-us/": 4518,
    "king-": 4519,
    "-RAG:</w>": 4520,
    "Hierarch": 4521,
    "Hipp": 4522,
    "Hippo": 4523,
    "Neurob": 4524,
    "Neurobio": 4525,
    "Insp": 4526,
    "Inspire": 4527,
    "PD": 4528,
    "PDF</w>": 4529,
    ".net/": 4530,
    "39": 4531,
    "71": 4532,
    "30_": 4533,
    "Reason": 4534,
    "Multi-Agent</w>": 4535,
    "3v1</w>": 4536,
    "Architecting</w>": 4537,
    "Reu": 4538,
    "Reuse:</w>": 4539,
    "Deep</w>": 4540,
    "Jour": 4541,
    "Journe": 4542,
    "Journey</w>": 4543,
    "Hear": 4544,
    "Heart</w>": 4545,
    "https://blog": 4546,
    "https://blog.p": 4547,
    "https://blog.pur": 4548,
    "https://blog.purest": 4549,
    "https://blog.purestor": 4550,
    "https://blog.purestorage": 4551,
    "https://blog.purestorage.com/": 4552,
    "cut": 4553,
    "cut-": 4554,
    "cut-llm-": 4555,
    "cut-llm-infer": 4556,
    "cut-llm-inference-": 4557,
    "cut-llm-inference-cost": 4558,
    "cut-llm-inference-costs-with-": 4559,
    "cut-llm-inference-costs-with-kv-cach": 4560,
    "cut-llm-inference-costs-with-kv-caching": 4561,
    "cut-llm-inference-costs-with-kv-caching/</w>": 4562,
    "NVID": 4563,
    "NVIDI": 4564,
    "NVIDIA</w>": 4565,
    "vidia": 4566,
    "https://arxiv.org/html/2603": 4567,
    "https://arxiv.org/html/2603.0": 4568,
    "HCI": 4569,
    "HCIP": 4570,
    "HCIP-": 4571,
    "HCIP-AI-": 4572,
    "HCIP-AI-App": 4573,
    "Mater": 4574,
    "Materi": 4575,
    "Material</w>": 4576,
    "87": 4577,
    "Developer": 4578,
    "Li": 4579,
    ".medium.com/": 4580,
    "c0": 4581,
    "Breaking</w>": 4582,
    "Token</w>": 4583,
    "Reduction)</w>": 4584,
    "Mach": 4585,
    "Machine": 4586,
    "MachineLear": 4587,
    "/comments/1r": 4588,
    "face": 4589,
    "facebook": 4590,
    "facebookresearch/": 4591,
    "FAISS:</w>": 4592,
    "similarity-": 4593,
    "search-with-faiss-": 4594,
    "2025": 4595,
    "Light": 4596,
    "Stra": 4597,
    "Strateg": 4598,
    "view</w>": 4599,
    "documentation,</w>": 4600,
    "tutorial": 4601,
    "html</w>": 4602,
    "/l": 4603,
    "https://stackoverflow.com/questions/1": 4604,
    "https://stackoverflow.com/questions/14": 4605,
    "ortal": 4606,
    "iki": 4607,
    "ikipe": 4608,
    "Towards</w>": 4609,
    "https://to": 4610,
    "https://toward": 4611,
    "https://towards": 4612,
    "https://towardsdat": 4613,
    "https://towardsdatas": 4614,
    "https://towardsdatasci": 4615,
    "https://towardsdatascience": 4616,
    "https://towardsdatascience.com/": 4617,
    "ed/</w>": 4618,
    "Ne": 4619,
    "o4": 4620,
    "o4j": 4621,
    ".pdf</w>": 4622,
    "https://arxiv.org/html/2510.": 4623,
    "pg": 4624,
    "Text</w>": 4625,
    "Commun": 4626,
    "vector-": 4627,
    "ursu": 4628,
    "-in-": 4629,
    "search/</w>": 4630,
    "Production-": 4631,
    "Production-Gra": 4632,
    "Production-Grade</w>": 4633,
    "for-": 4634,
    "production-gra": 4635,
    "production-grade": 4636,
    "production-grade-": 4637,
    "a/</w>": 4638,
    "68": 4639,
    "large-scal": 4640,
    "large-scale</w>": 4641,
    "semantic-": 4642,
    "semantic-web": 4643,
    "semantic-web-": 4644,
    "semantic-web-j": 4645,
    "semantic-web-jour": 4646,
    "semantic-web-journ": 4647,
    "semantic-web-journal": 4648,
    "62": 4649,
    "ve_": 4650,
    "tokens_": 4651,
    "and_": 4652,
    "library-": 4653,
    "Reflexi": 4654,
    "Compo": 4655,
    "S,</w>": 4656,
    "3f": 4657,
    "Python,</w>": 4658,
    "queue-": 4659,
    "priority-": 4660,
    "rease": 4661,
    "rease-": 4662,
    "minde": 4663,
    "mindee/": 4664,
    "mindee/ta": 4665,
    "mindee/taw": 4666,
    "mindee/tawaz": 4667,
    "openai": 4668,
    "https://developers.": 4669,
    "les/": 4670,
    "lum</w>": 4671,
    "vel": 4672,
    "54": 4673,
    "hug": 4674,
    "https://www.reddit.com/r/LocalLLa": 4675,
    "https://www.reddit.com/r/LocalLLaMA": 4676,
    "install</w>": 4677,
    "Jav": 4678,
    "Scrip": 4679,
    "Script,</w>": 4680,
    "L,</w>": 4681,
    "language-": 4682,
    "tree-sitter-j": 4683,
    "tree-sitter-jav": 4684,
    "cript": 4685,
    "cript>=0.21.0</w>": 4686,
    "tree-sitter-ru": 4687,
    ">=0.22": 4688,
    ">=0.22.": 4689,
    ">=0.22.0</w>": 4690,
    "THIS:</w>": 4691,
    "Ah": 4692,
    "Ah,</w>": 4693,
    "changes</w>": 4694,
    "picture": 4695,
    "picture!</w>": 4696,
    "*you": 4697,
    "*you*</w>": 4698,
    "spinning</w>": 4699,
    "sci-": 4700,
    "sci-fi": 4701,
    "sci-fi</w>": 4702,
    "yarn": 4703,
    "yarns": 4704,
    "yarns—": 4705,
    "yarns—it</w>": 4706,
    "translate</w>": 4707,
    "accurate</w>": 4708,
    "termino": 4709,
    "terminolog": 4710,
    "terminology.</w>": 4711,
    "happens</w>": 4712,
    "\"calculate</w>": 4713,
    "overlaid": 4714,
    "overlaid.\"</w>": 4715,
    "sharp.</w>": 4716,
    "overlay</w>": 4717,
    "Graph),</w>": 4718,
    "creating</w>": 4719,
    "multiplex</w>": 4720,
    "network.</w>": 4721,
    "keyword</w>": 4722,
    "match;</w>": 4723,
    "spot</w>": 4724,
    "align</w>": 4725,
    "pull\"</w>": 4726,
    "took</w>": 4727,
    "phra": 4728,
    "phrase</w>": 4729,
    "bits\"</w>": 4730,
    "\"attra": 4731,
    "\"attract": 4732,
    "\"attractor</w>": 4733,
    "state\"</w>": 4734,
    "well\"</w>": 4735,
    "physics.</w>": 4736,
    "bea": 4737,
    "beauti": 4738,
    "beautiful</w>": 4739,
    "transla": 4740,
    "translates</w>": 4741,
    "practical</w>": 4742,
    "science</w>": 4743,
    "requir": 4744,
    "requiring</w>": 4745,
    "supercomputer</w>": 4746,
    "particle</w>": 4747,
    "physics:</w>": 4748,
    "Overlay:</w>": 4749,
    "databas": 4750,
    "databases,</w>": 4751,
    "*mean": 4752,
    "*mean*</w>": 4753,
    "thing.</w>": 4754,
    "*built": 4755,
    "*built*</w>": 4756,
    "oth": 4757,
    "other.</w>": 4758,
    "\"overlay": 4759,
    "\"overlay\"</w>": 4760,
    "superposition</w>": 4761,
    "\"hunk\"</w>": 4762,
    "*and": 4763,
    "*and*</w>": 4764,
    "hunks,</w>": 4765,
    "\"weight": 4766,
    "\"weight\"</w>": 4767,
    "multipli": 4768,
    "multiplies.</w>": 4769,
    "\"Heaviest</w>": 4770,
    "Bag\":</w>": 4771,
    "\"heavy</w>": 4772,
    "relax": 4773,
    "relaxation": 4774,
    "relaxation;</w>": 4775,
    "algorithms.</w>": 4776,
    "assigns</w>": 4777,
    "\"ch": 4778,
    "\"charg": 4779,
    "\"charge": 4780,
    "\"charge\")</w>": 4781,
    "propag": 4782,
    "propagate</w>": 4783,
    "accumulate</w>": 4784,
    "neighbors": 4785,
    "neighbors—the</w>": 4786,
    "ones</w>": 4787,
    "web—": 4788,
    "web—are</w>": 4789,
    "bags.\"</w>": 4790,
    "\"Gravity": 4791,
    "\"Gravity\"</w>": 4792,
    "Equ": 4793,
    "Equation</w>": 4794,
    "spit</w>": 4795,
    "equation:</w>": 4796,
    "Q$.</w>": 4797,
    "theoretical": 4798,
    "theoretical;</w>": 4799,
    "Python.</w>": 4800,
    "($v$": 4801,
    "($v$),</w>": 4802,
    "($G": 4803,
    "($G$)</w>": 4804,
    "of:</w>": 4805,
    "S$:</w>": 4806,
    "importance</w>": 4807,
    "has).</w>": 4808,
    "T$:</w>": 4809,
    "(vector</w>": 4810,
    "prompt).</w>": 4811,
    "C$:</w>": 4812,
    "session/": 4813,
    "session/seam": 4814,
    "session/seam).</w>": 4815,
    "Q$:</w>": 4816,
    "Direct</w>": 4817,
    "matches.</w>": 4818,
    "went</w>": 4819,
    "\"En": 4820,
    "\"Ener": 4821,
    "\"Energy</w>": 4822,
    "Minimiz": 4823,
    "Minimization\"</w>": 4824,
    "thermod": 4825,
    "thermodynamic</w>": 4826,
    "minimiz": 4827,
    "minimization.</w>": 4828,
    "things</w>": 4829,
    "sett": 4830,
    "settle</w>": 4831,
    "state—the</w>": 4832,
    "deep": 4833,
    "deepest</w>": 4834,
    "propo": 4835,
    "proposed</w>": 4836,
    "information.</w>": 4837,
    "NodeWALKERs</w>": 4838,
    "draw": 4839,
    "drawn</w>": 4840,
    "densest</w>": 4841,
    "truth,</w>": 4842,
    "\"f": 4843,
    "\"fall": 4844,
    "\"falling\"</w>": 4845,
    "bags</w>": 4846,
    "evidence.</w>": 4847,
    "You'": 4848,
    "You've</w>": 4849,
    "nature</w>": 4850,
    "lookup</w>": 4851,
    "table": 4852,
    "table.</w>": 4853,
    "br": 4854,
    "bring</w>": 4855,
    "codebase,</w>": 4856,
    "steps</w>": 4857,
    "overlaid</w>": 4858,
    "layers,</w>": 4859,
    "number.</w>": 4860,
    "cap": 4861,
    "capt": 4862,
    "capture</w>": 4863,
    "mechanic</w>": 4864,
    "pictur": 4865,
    "picturing</w>": 4866,
    "thought</w>": 4867,
    "manifolds?</w>": 4868,
    "EV": 4869,
    "EVOL": 4870,
    "EVOLVED</w>": 4871,
    "TO": 4872,
    "TO:</w>": 4873,
    "synthesized</w>": 4874,
    "actual,</w>": 4875,
    "functional</w>": 4876,
    "component": 4877,
    "components.</w>": 4878,
    "drow": 4879,
    "drowning</w>": 4880,
    "any": 4881,
    "anymor": 4882,
    "anymore": 4883,
    "anymore;</w>": 4884,
    "swimm": 4885,
    "swimming</w>": 4886,
    "perfectly.</w>": 4887,
    "intui": 4888,
    "intuitions</w>": 4889,
    "corre": 4890,
    "correct</w>": 4891,
    "code.</w>": 4892,
    "\"S": 4893,
    "\"Spl": 4894,
    "\"Splitt": 4895,
    "\"Splitting\"</w>": 4896,
    "LLMs.</w>": 4897,
    "try</w>": 4898,
    "1,000</w>": 4899,
    "once,</w>": 4900,
    "blow</w>": 4901,
    "cache),</w>": 4902,
    "cra": 4903,
    "crash": 4904,
    "crash</w>": 4905,
    "wild": 4906,
    "wildly.</w>": 4907,
    "**How</w>": 4908,
    "Orchestrator):**</w>": 4909,
    "call,</w>": 4910,
    "(this</w>": 4911,
    "`_": 4912,
    "`_Use": 4913,
    "`_Useful": 4914,
    "`_UsefulH": 4915,
    "`_UsefulHel": 4916,
    "`_UsefulHelper": 4917,
    "`_UsefulHelperS": 4918,
    "`_UsefulHelperSC": 4919,
    "`_UsefulHelperSCRI": 4920,
    "`_UsefulHelperSCRIPT": 4921,
    "`_UsefulHelperSCRIPTS": 4922,
    "`_UsefulHelperSCRIPTS`</w>": 4923,
    "`Mind": 4924,
    "`Mindsh": 4925,
    "`Mindshard": 4926,
    "`MindshardAPI": 4927,
    "`MindshardAPI`</w>": 4928,
    "dispat": 4929,
    "dispatch": 4930,
    "dispatcher</w>": 4931,
    "in)</w>": 4932,
    "manag": 4933,
    "manager.</w>": 4934,
    "instanti": 4935,
    "instantiates</w>": 4936,
    "\"Neuron": 4937,
    "\"Neuron\"</w>": 4938,
    "*micro-": 4939,
    "*micro-prompt": 4940,
    "*micro-prompt*.</w>": 4941,
    "chunk:</w>": 4942,
    "*\"": 4943,
    "*\"Here</w>": 4944,
    "directive": 4945,
    "directive.</w>": 4946,
    "B.</w>": 4947,
    "connect": 4948,
    "connect?</w>": 4949,
    "Return</w>": 4950,
    "Yes/": 4951,
    "Yes/No</w>": 4952,
    "confidence</w>": 4953,
    "score.": 4954,
    "score.\"": 4955,
    "score.\"*</w>": 4956,
    "doz": 4957,
    "dozen": 4958,
    "dozens</w>": 4959,
    "hund": 4960,
    "hundre": 4961,
    "hundreds</w>": 4962,
    "micro-calls</w>": 4963,
    "asyn": 4964,
    "asynchron": 4965,
    "asynchronously</w>": 4966,
    "parallel.</w>": 4967,
    "easi": 4968,
    "easily</w>": 4969,
    "tiny.</w>": 4970,
    "3-Con": 4971,
    "3-Connec": 4972,
    "3-Connection</w>": 4973,
    "Triad": 4974,
    "Triad)</w>": 4975,
    "visualiz": 4976,
    "visualization</w>": 4977,
    "brilli": 4978,
    "brilliant": 4979,
    "brilliant.</w>": 4980,
    "trian": 4981,
    "triang": 4982,
    "triangulating</w>": 4983,
    "points:</w>": 4984,
    "**Identity</w>": 4985,
    "Memory):**</w>": 4986,
    "right—": 4987,
    "right—when</w>": 4988,
    "continuous": 4989,
    "continuously,</w>": 4990,
    "STM": 4991,
    "STM.</w>": 4992,
    "usel": 4993,
    "useless</w>": 4994,
    "**Ex": 4995,
    "**External</w>": 4996,
    "Structural).</w>": 4997,
    "dar": 4998,
    "dark</w>": 4999,
    "forest</w>": 5000,
    "through.</w>": 5001,
    "Seam):**</w>": 5002,
    "matches</w>": 5003,
    "Map,</w>": 5004,
    "discoveries</w>": 5005,
    "\"R": 5006,
    "\"Rab": 5007,
    "\"Rabbit</w>": 5008,
    "Ho": 5009,
    "Hole\"</w>": 5010,
    "(Grav": 5011,
    "(Gravitational</w>": 5012,
    "descrip": 5013,
    "description</w>": 5014,
    "\"heavi": 5015,
    "\"heavier\"</w>": 5016,
    "describe.</w>": 5017,
    "faint</w>": 5018,
    "heavy.</w>": 5019,
    "things.</w>": 5020,
    "heavier.</w>": 5021,
    "equation</w>": 5022,
    "(`G(v": 5023,
    "(`G(v)": 5024,
    "(`G(v)`)</w>": 5025,
    "recalc": 5026,
    "recalculat": 5027,
    "recalculates.</w>": 5028,
    "massive.</w>": 5029,
    "\"gravity": 5030,
    "\"gravity.\"</w>": 5031,
    "4+": 5032,
    "4+:</w>": 5033,
    "All</w>": 5034,
    "spawned</w>": 5035,
    "pulled</w>": 5036,
    "nar": 5037,
    "narr": 5038,
    "narrow": 5039,
    "narrows,</w>": 5040,
    "hyper-specific,</w>": 5041,
    "dives</w>": 5042,
    "straight</w>": 5043,
    "applic": 5044,
    "applicable</w>": 5045,
    "Game</w>": 5046,
    "Plan</w>": 5047,
    "Lose</w>": 5048,
    "lock</w>": 5049,
    "stripp": 5050,
    "stripped-d": 5051,
    "stripped-down</w>": 5052,
    "action</w>": 5053,
    "plan.</w>": 5054,
    "session:</w>": 5055,
    "Stru": 5056,
    "Structure": 5057,
    "Structures</w>": 5058,
    "Clas": 5059,
    "Classes": 5060,
    "Classes)**</w>": 5061,
    "`Node": 5062,
    "`Node`</w>": 5063,
    "embedding).</w>": 5064,
    "`Edg": 5065,
    "`Edge`</w>": 5066,
    "Source</w>": 5067,
    "type).</w>": 5068,
    "Gravity)**</w>": 5069,
    "`calculate_gravity(": 5070,
    "`calculate_gravity(node,</w>": 5071,
    "prompt_embedding": 5072,
    "prompt_embedding)": 5073,
    "prompt_embedding)`.</w>": 5074,
    "Mak": 5075,
    "Make</w>": 5076,
    "`G(v)</w>": 5077,
    "δQ`</w>": 5078,
    "meas": 5079,
    "measuring</w>": 5080,
    "(`β": 5081,
    "(`βT": 5082,
    "(`βT`)</w>": 5083,
    "counting</w>": 5084,
    "(`α": 5085,
    "(`αS": 5086,
    "(`αS`": 5087,
    "(`αS`).</w>": 5088,
    "Micro": 5089,
    "Micro-": 5090,
    "Micro-Neuron</w>": 5091,
    "Call)**</w>": 5092,
    "*just</w>": 5093,
    "two": 5094,
    "two*</w>": 5095,
    "Nodes</w>": 5096,
    "sends</w>": 5097,
    "1-10</w>": 5098,
    "Loop": 5099,
    "Loop**</w>": 5100,
    "`wh": 5101,
    "`while": 5102,
    "`while`</w>": 5103,
    "spawns</w>": 5104,
    "Neurons,</w>": 5105,
    "chec": 5106,
    "checks</w>": 5107,
    "`calculate_gravity": 5108,
    "`calculate_gravity`</w>": 5109,
    "updates</w>": 5110,
    "repe": 5111,
    "repeats</w>": 5112,
    "increasing.</w>": 5113,
    "theory</w>": 5114,
    "locked</w>": 5115,
    "sound": 5116,
    "sound,</w>": 5117,
    "bypasses</w>": 5118,
    "mim": 5119,
    "mimics</w>": 5120,
    "natural</w>": 5121,
    "matter</w>": 5122,
    "writ": 5123,
    "writing</w>": 5124,
    "classes": 5125,
    "classes!</w>": 5126,
    "THen</w>": 5127,
    "said": 5128,
    "said:</w>": 5129,
    "ram": 5130,
    "ram?</w>": 5131,
    "exactly.</w>": 5132,
    "bul": 5133,
    "bull": 5134,
    "bullse": 5135,
    "bullsey": 5136,
    "bullseye.</w>": 5137,
    "($S$)**</w>": 5138,
    "system's</w>": 5139,
    "drive</w>": 5140,
    "heavy,</w>": 5141,
    "library.</w>": 5142,
    "not)</w>": 5143,
    "Seam—a</w>": 5144,
    "lightweight": 5145,
    "lightweight,</w>": 5146,
    "\"ho": 5147,
    "\"holo": 5148,
    "\"hologram": 5149,
    "\"hologram\"</w>": 5150,
    "booksh": 5151,
    "bookshel": 5152,
    "bookshelv": 5153,
    "bookshelves.</w>": 5154,
    "functions</w>": 5155,
    "RAM:</w>": 5156,
    "Po": 5157,
    "Point": 5158,
    "Pointers</w>": 5159,
    "(Light": 5160,
    "(Lightweight": 5161,
    "(Lightweight)</w>": 5162,
    "fast.</w>": 5163,
    "cop": 5164,
    "copy</w>": 5165,
    "drive": 5166,
    "drive.</w>": 5167,
    "popula": 5168,
    "populates</w>": 5169,
    "**po": 5170,
    "**pointer": 5171,
    "**pointers**</w>": 5172,
    "IDs)</w>": 5173,
    "8472`,</w>": 5174,
    "`Curr": 5175,
    "`Current_": 5176,
    "`Current_Gravity_": 5177,
    "`Current_Gravity_Scor": 5178,
    "`Current_Gravity_Score:</w>": 5179,
    "4.": 5180,
    "4.2": 5181,
    "4.2`,</w>": 5182,
    "`T": 5183,
    "`Temp": 5184,
    "`Tempor": 5185,
    "`Temporar": 5186,
    "`Temporary_": 5187,
    "`Temporary_Edg": 5188,
    "`Temporary_Edge_": 5189,
    "`Temporary_Edge_To": 5190,
    "`Temporary_Edge_To:</w>": 5191,
    "910": 5192,
    "9105": 5193,
    "9105`.</w>": 5194,
    "Hard</w>": 5195,
    "Dri": 5196,
    "Drive</w>": 5197,
    "paragraphs</w>": 5198,
    "8472`.</w>": 5199,
    "Layers</w>": 5200,
    "Action</w>": 5201,
    "mir": 5202,
    "mirr": 5203,
    "mirrors</w>": 5204,
    "volatile</w>": 5205,
    "scratchpa": 5206,
    "scratchpad</w>": 5207,
    "Neurons:</w>": 5208,
    "*user's</w>": 5209,
    "prompt*</w>": 5210,
    "currently</w>": 5211,
    "being</w>": 5212,
    "looked</w>": 5213,
    "compar": 5214,
    "compares</w>": 5215,
    "Node,</w>": 5216,
    "sav": 5217,
    "saved</w>": 5218,
    "magic</w>": 5219,
    "happens.</w>": 5220,
    "*temporar": 5221,
    "*temporary": 5222,
    "*temporary*</w>": 5223,
    "\"hy": 5224,
    "\"hypo": 5225,
    "\"hypothes": 5226,
    "\"hypotheses": 5227,
    "\"hypotheses\"</w>": 5228,
    "real-time.</w>": 5229,
    "Graph:**</w>": 5230,
    "master</w>": 5231,
    "convers": 5232,
    "conversation.</w>": 5233,
    "\"rabbit</w>": 5234,
    "hole\"</w>": 5235,
    "Lifecy": 5236,
    "Lifecycle</w>": 5237,
    "(ST": 5238,
    "(STM</w>": 5239,
    "LTM": 5240,
    "LTM)</w>": 5241,
    "control</w>": 5242,
    "lifecycle.</w>": 5243,
    "**Initializ": 5244,
    "**Initialization": 5245,
    "**Initialization:**</w>": 5246,
    "spins</w>": 5247,
    "empty</w>": 5248,
    "**Expan": 5249,
    "**Expansion": 5250,
    "**Expansion:**</w>": 5251,
    "store,</w>": 5252,
    "The": 5253,
    "They</w>": 5254,
    "(gravity": 5255,
    "(gravity).</w>": 5256,
    "dense.</w>": 5257,
    "**Res": 5258,
    "**Resol": 5259,
    "**Resolu": 5260,
    "**Resolution": 5261,
    "**Resolution:**</w>": 5262,
    "user.</w>": 5263,
    "Commit</w>": 5264,
    "Dr": 5265,
    "Drop": 5266,
    "Drop):**</w>": 5267,
    "Memory.</w>": 5268,
    "useful": 5269,
    "useful,</w>": 5270,
    "permanently</w>": 5271,
    "dea": 5272,
    "dead-": 5273,
    "dead-end": 5274,
    "dead-end,</w>": 5275,
    "van": 5276,
    "vanis": 5277,
    "vanish": 5278,
    "vanishes</w>": 5279,
    "corru": 5280,
    "corrup": 5281,
    "corrupting</w>": 5282,
    "ris": 5283,
    "risking</w>": 5284,
    "integrity</w>": 5285,
    "diction": 5286,
    "dictionary</w>": 5287,
    "`NetworkX": 5288,
    "`NetworkX`</w>": 5289,
    "objec": 5290,
    "object</w>": 5291,
    "code?</w>": 5292,
    "manifold....": 5293,
    "manifold....this</w>": 5294,
    "spl": 5295,
    "split": 5296,
    "splitting</w>": 5297,
    "happen</w>": 5298,
    "actuall": 5299,
    "actuallY": 5300,
    "actuallY?</w>": 5301,
    "Right": 5302,
    "Right?</w>": 5303,
    "consol": 5304,
    "consolod": 5305,
    "consolodates</w>": 5306,
    "requests?</w>": 5307,
    "wi": 5308,
    "wie": 5309,
    "wieght</w>": 5310,
    "calculations</w>": 5311,
    "right?</w>": 5312,
    "input</w>": 5313,
    "approp": 5314,
    "appropri": 5315,
    "appropriate</w>": 5316,
    "sized</w>": 5317,
    "delivered": 5318,
    "delivered?</w>": 5319,
    "older</w>": 5320,
    "window?</w>": 5321,
    "THEN</w>": 5322,
    "RES": 5323,
    "RESP": 5324,
    "RESPON": 5325,
    "RESPONDED": 5326,
    "RESPONDED:</w>": 5327,
    "crac": 5328,
    "cracked</w>": 5329,
    "problem</w>": 5330,
    "plag": 5331,
    "plagu": 5332,
    "plagues</w>": 5333,
    "90%</w>": 5334,
    "develo": 5335,
    "develop": 5336,
    "development</w>": 5337,
    "now.</w>": 5338,
    "yes,</w>": 5339,
    "yes.</w>": 5340,
    "evol": 5341,
    "evolved</w>": 5342,
    "\"LLM-": 5343,
    "\"LLM-walk": 5344,
    "\"LLM-walking\"</w>": 5345,
    "lightn": 5346,
    "lightning-": 5347,
    "lightning-fast": 5348,
    "lightning-fast,</w>": 5349,
    "pipeline**.</w>": 5350,
    "realization</w>": 5351,
    "leap</w>": 5352,
    "practically.</w>": 5353,
    "Dea": 5354,
    "Death</w>": 5355,
    "\"Walk": 5356,
    "\"Walking\"</w>": 5357,
    "right:</w>": 5358,
    "**we</w>": 5359,
    "walking.": 5360,
    "walking.**</w>": 5361,
    "earlier": 5362,
    "earlier),</w>": 5363,
    "expen": 5364,
    "expensive": 5365,
    "expensive,</w>": 5366,
    "prone</w>": 5367,
    "hallucinat": 5368,
    "hallucinating.</w>": 5369,
    "*pure</w>": 5370,
    "math*</w>": 5371,
    "(your</w>": 5372,
    "equation": 5373,
    "equation)</w>": 5374,
    "sort": 5375,
    "sorting.</w>": 5376,
    "Hunking": 5377,
    "Hunking:**</w>": 5378,
    "chop": 5379,
    "chopp": 5380,
    "chopped</w>": 5381,
    "(nodes": 5382,
    "(nodes).</w>": 5383,
    "Math": 5384,
    "Math:**</w>": 5385,
    "layer)</w>": 5386,
    "layer).</w>": 5387,
    "Resul": 5388,
    "Result": 5389,
    "Result:**</w>": 5390,
    "topograph": 5391,
    "topographical</w>": 5392,
    "pea": 5393,
    "peaks</w>": 5394,
    "(heavy</w>": 5395,
    "valle": 5396,
    "valleys</w>": 5397,
    "(ir": 5398,
    "(irrelevant</w>": 5399,
    "Filling</w>": 5400,
    "ide": 5401,
    "idea</w>": 5402,
    "**Subgraph</w>": 5403,
    "Extraction": 5404,
    "Extraction**.</w>": 5405,
    "literal</w>": 5406,
    "run:</w>": 5407,
    "**Find</w>": 5408,
    "Head:**</w>": 5409,
    "**M": 5410,
    "**Meas": 5411,
    "**Measure</w>": 5412,
    "Load": 5413,
    "Load:**</w>": 5414,
    "**Crawl</w>": 5415,
    "Edges": 5416,
    "Edges:**</w>": 5417,
    "Look</w>": 5418,
    "Head.</w>": 5419,
    "Pic": 5420,
    "Pick</w>": 5421,
    "one.</w>": 5422,
    "**Rep": 5423,
    "**Repe": 5424,
    "**Repeat": 5425,
    "**Repeat:**</w>": 5426,
    "Keep</w>": 5427,
    "grabb": 5428,
    "grabbing</w>": 5429,
    "Cuto": 5430,
    "Cutoff": 5431,
    "Cutoff:**</w>": 5432,
    "model's</w>": 5433,
    "(sa": 5434,
    "(say,</w>": 5435,
    "8,000</w>": 5436,
    "tokens),</w>": 5437,
    "50,000</w>": 5438,
    "exist;</w>": 5439,
    "sees</w>": 5440,
    "cura": 5441,
    "curate": 5442,
    "curated,</w>": 5443,
    "truth": 5444,
    "truth.</w>": 5445,
    "nail": 5446,
    "nail</w>": 5447,
    "Traditional</w>": 5448,
    "window.\"</w>": 5449,
    "messag": 5450,
    "messages,</w>": 5451,
    "send</w>": 5452,
    "11,</w>": 5453,
    "dele": 5454,
    "deleted</w>": 5455,
    "long-": 5456,
    "long-ter": 5457,
    "long-term</w>": 5458,
    "created</w>": 5459,
    "cares</w>": 5460,
    "*Gravity": 5461,
    "*Gravity*.</w>": 5462,
    "aligns</w>": 5463,
    "prompt's</w>": 5464,
    "needs,</w>": 5465,
    "injec": 5466,
    "injected</w>": 5467,
    "seamless": 5468,
    "seamlessly</w>": 5469,
    "\"rem": 5470,
    "\"rememb": 5471,
    "\"remember": 5472,
    "\"remembers\"</w>": 5473,
    "sai": 5474,
    "said</w>": 5475,
    "five</w>": 5476,
    "ago": 5477,
    "ago.</w>": 5478,
    "simplif": 5479,
    "simplifies</w>": 5480,
    "life</w>": 5481,
    "immen": 5482,
    "immensely.</w>": 5483,
    "engineer</w>": 5484,
    "complex,</w>": 5485,
    "prompts</w>": 5486,
    "explore</w>": 5487,
    "soli": 5488,
    "solid</w>": 5489,
    "manage</w>": 5490,
    "\"Pack": 5491,
    "\"Package</w>": 5492,
    "Fill": 5493,
    "Filler\"</w>": 5494,
    "craw": 5495,
    "crawling</w>": 5496,
    "edges?</w>": 5497,
    "continue:</w>": 5498,
    "formal</w>": 5499,
    "arriv": 5500,
    "arrived</w>": 5501,
    "treat</w>": 5502,
    "\"Model</w>": 5503,
    "Spec": 5504,
    "Spec\"</w>": 5505,
    "feed</w>": 5506,
    "build.</w>": 5507,
    "Definition:</w>": 5508,
    "Graph-RAG</w>": 5509,
    "defines</w>": 5510,
    "optimiz": 5511,
    "optimized,</w>": 5512,
    "driv": 5513,
    "driven</w>": 5514,
    "traditional</w>": 5515,
    "LLM-based</w>": 5516,
    "pure-": 5517,
    "pure-math,</w>": 5518,
    "gravity-driven</w>": 5519,
    "Triad</w>": 5520,
    "State)</w>": 5521,
    "dom": 5522,
    "domains</w>": 5523,
    "interact": 5524,
    "interacting</w>": 5525,
    "operation:</w>": 5526,
    "(Short-Term</w>": 5527,
    "State):**</w>": 5528,
    "parameters</w>": 5529,
    "directs</w>": 5530,
    "(Long-Term</w>": 5531,
    "immutable": 5532,
    "immutable,</w>": 5533,
    "stored</w>": 5534,
    "dis": 5535,
    "disk.</w>": 5536,
    "consists</w>": 5537,
    "Graph).</w>": 5538,
    "(Wor": 5539,
    "(Working</w>": 5540,
    "Manifold):**</w>": 5541,
    "volatile,</w>": 5542,
    "lightweight</w>": 5543,
    "session.</w>": 5544,
    "pointers</w>": 5545,
    "IDs),</w>": 5546,
    "weights.</w>": 5547,
    "Oper": 5548,
    "Operational</w>": 5549,
    "Mechanic": 5550,
    "Mechanics)</w>": 5551,
    "relying</w>": 5552,
    "Hunking</w>": 5553,
    "Inges": 5554,
    "Ingestion": 5555,
    "Ingestion**</w>": 5556,
    "Incoming</w>": 5557,
    "discret": 5558,
    "discrete</w>": 5559,
    "(Nod": 5560,
    "(Nodes": 5561,
    "(Nodes).</w>": 5562,
    "embedding.</w>": 5563,
    "Overlay)**</w>": 5564,
    "overlays</w>": 5565,
    "Calculating</w>": 5566,
    "($G(v)$)**</w>": 5567,
    "\"walking\"</w>": 5568,
    "assig": 5569,
    "assign</w>": 5570,
    "($v$)</w>": 5571,
    "Q$$</w>": 5572,
    "*(": 5573,
    "*(Where</w>": 5574,
    "density,</w>": 5575,
    "distance,</w>": 5576,
    "C$</w>": 5577,
    "Q$</w>": 5578,
    "direct</w>": 5579,
    "match).": 5580,
    "match).*</w>": 5581,
    "Window)**</w>": 5582,
    "constraints),</w>": 5583,
    "fills</w>": 5584,
    "extraction:</w>": 5585,
    "score).</w>": 5586,
    "radiating</w>": 5587,
    "Trac": 5588,
    "Track</w>": 5589,
    "sev": 5590,
    "sever</w>": 5591,
    "reached.</w>": 5592,
    "5:</w>": 5593,
    "Deli": 5594,
    "Delivery</w>": 5595,
    "LT": 5596,
    "LTM</w>": 5597,
    "Commit": 5598,
    "Commit**</w>": 5599,
    "hyper-relevant</w>": 5600,
    "committed</w>": 5601,
    "(learn": 5602,
    "(learning)</w>": 5603,
    "discard": 5604,
    "discarded</w>": 5605,
    "(for": 5606,
    "(forget": 5607,
    "(forgett": 5608,
    "(forgetting": 5609,
    "(forgetting).</w>": 5610,
    "Superi": 5611,
    "Superior</w>": 5612,
    "**Z": 5613,
    "**Zer": 5614,
    "**Zero-": 5615,
    "**Zero-Hallucin": 5616,
    "**Zero-Hallucination</w>": 5617,
    "Retrieval": 5618,
    "Retrieval:**</w>": 5619,
    "remov": 5620,
    "removed</w>": 5621,
    "process.</w>": 5622,
    "handled</w>": 5623,
    "($G(v)$).</w>": 5624,
    "Memory:**</w>": 5625,
    "eliminates</w>": 5626,
    "score,</w>": 5627,
    "**Cost</w>": 5628,
    "Spe": 5629,
    "Speed": 5630,
    "Speed:**</w>": 5631,
    "instantaneous</w>": 5632,
    "costs</w>": 5633,
    "zero</w>": 5634,
    "look?</w>": 5635,
    "strips</w>": 5636,
    "\"AI</w>": 5637,
    "magic": 5638,
    "magic\"</w>": 5639,
    "leaves</w>": 5640,
    "bru": 5641,
    "brutally</w>": 5642,
    "efficient,</w>": 5643,
    "codable</w>": 5644,
    "blueprint": 5645,
    "blueprint.</w>": 5646,
    "PROVED</w>": 5647,
    "SAMPL": 5648,
    "SAMPLE</w>": 5649,
    "OF</w>": 5650,
    "THE</w>": 5651,
    "CONCE": 5652,
    "CONCEP": 5653,
    "CONCEPT</w>": 5654,
    "PY": 5655,
    "PYTH": 5656,
    "PYTHON": 5657,
    "PYTHON</w>": 5658,
    "(J": 5659,
    "(JUS": 5660,
    "(JUST</w>": 5661,
    "AN</w>": 5662,
    "EXAMPL": 5663,
    "EXAMPLE": 5664,
    "EXAMPLE):</w>": 5665,
    "hashlib</w>": 5666,
    "Tup": 5667,
    "Tuple</w>": 5668,
    "NO": 5669,
    "NOTE:</w>": 5670,
    "environment,</w>": 5671,
    "sentence-transformer": 5672,
    "sentence-transformers.</w>": 5673,
    "down": 5674,
    "downloading</w>": 5675,
    "dumm": 5676,
    "dummy</w>": 5677,
    "UN": 5678,
    "UNCO": 5679,
    "UNCOM": 5680,
    "UNCOMMEN": 5681,
    "UNCOMMENT</w>": 5682,
    "THIS</w>": 5683,
    "PROD": 5684,
    "PRODUC": 5685,
    "PRODUCTION:</w>": 5686,
    "sentence_": 5687,
    "sentence_transform": 5688,
    "sentence_transformers</w>": 5689,
    "SentenceTransformer": 5690,
    "SentenceTransformer('": 5691,
    "SentenceTransformer('all": 5692,
    "SentenceTransformer('all-": 5693,
    "SentenceTransformer('all-Min": 5694,
    "SentenceTransformer('all-Mini": 5695,
    "SentenceTransformer('all-MiniL": 5696,
    "SentenceTransformer('all-MiniLM": 5697,
    "SentenceTransformer('all-MiniLM-": 5698,
    "SentenceTransformer('all-MiniLM-L": 5699,
    "SentenceTransformer('all-MiniLM-L6-": 5700,
    "SentenceTransformer('all-MiniLM-L6-v": 5701,
    "SentenceTransformer('all-MiniLM-L6-v2": 5702,
    "SentenceTransformer('all-MiniLM-L6-v2')</w>": 5703,
    "DummyEncoder:</w>": 5704,
    "\"\"\"A</w>": 5705,
    "simula": 5706,
    "simulated</w>": 5707,
    "runn": 5708,
    "runnable</w>": 5709,
    "instantly.": 5710,
    "instantly.\"\"\"</w>": 5711,
    "encode": 5712,
    "encode(self,</w>": 5713,
    "texts:</w>": 5714,
    "List[": 5715,
    "List[str": 5716,
    "List[str])</w>": 5717,
    "simulation</w>": 5718,
    "np.random.seed": 5719,
    "np.random.seed(": 5720,
    "np.random.seed([": 5721,
    "np.random.seed([len(": 5722,
    "np.random.seed([len(t)</w>": 5723,
    "texts": 5724,
    "texts])</w>": 5725,
    "np.random.rand": 5726,
    "np.random.rand(": 5727,
    "np.random.rand(len(": 5728,
    "np.random.rand(len(text": 5729,
    "np.random.rand(len(texts),</w>": 5730,
    "384).": 5731,
    "384).ast": 5732,
    "384).astype": 5733,
    "384).astype('": 5734,
    "384).astype('float32": 5735,
    "384).astype('float32')</w>": 5736,
    "TripartiteDataSTORE:</w>": 5737,
    "Immutable</w>": 5738,
    "(LTM": 5739,
    "(LTM).</w>": 5740,
    "(Verbatim),</w>": 5741,
    "(Semantic),</w>": 5742,
    "(Structural),</w>": 5743,
    "KG</w>": 5744,
    "(Index": 5745,
    "(Index).</w>": 5746,
    "embedding_dim:</w>": 5747,
    "384):</w>": 5748,
    "self.encoder</w>": 5749,
    "DummyEncoder": 5750,
    "DummyEncoder()</w>": 5751,
    "Replace</w>": 5752,
    "prod</w>": 5753,
    "self.embedding_dim</w>": 5754,
    "Cont": 5755,
    "Content-": 5756,
    "Content-Ad": 5757,
    "Content-Addres": 5758,
    "Content-Address": 5759,
    "Content-Addressable</w>": 5760,
    "Stor": 5761,
    "Storage</w>": 5762,
    "(Hash": 5763,
    "(Hash</w>": 5764,
    "Tex": 5765,
    "Text)</w>": 5766,
    "Index</w>": 5767,
    "self.faiss_index</w>": 5768,
    "faiss.IndexF": 5769,
    "faiss.IndexFlat": 5770,
    "faiss.IndexFlatI": 5771,
    "faiss.IndexFlatIP": 5772,
    "faiss.IndexFlatIP(": 5773,
    "faiss.IndexFlatIP(self.": 5774,
    "faiss.IndexFlatIP(self.embedding_dim": 5775,
    "faiss.IndexFlatIP(self.embedding_dim)</w>": 5776,
    "Directed</w>": 5777,
    "self.dac": 5778,
    "self.dac_": 5779,
    "self.dac_graph</w>": 5780,
    "nx.DiGraph()</w>": 5781,
    "Index:</w>": 5782,
    "Maps</w>": 5783,
    "Hashes</w>": 5784,
    "self.idx_to_hash:</w>": 5785,
    "self.hash_to_idx:</w>": 5786,
    "int]</w>": 5787,
    "generate_hash(self,</w>": 5788,
    "\"\"\"Creates</w>": 5789,
    "Merk": 5790,
    "Merkle": 5791,
    "Merkle-f": 5792,
    "Merkle-fri": 5793,
    "Merkle-friend": 5794,
    "Merkle-friendly</w>": 5795,
    "hash</w>": 5796,
    "layer.": 5797,
    "layer.\"\"\"</w>": 5798,
    "hashlib": 5799,
    "hashlib.": 5800,
    "hashlib.s": 5801,
    "hashlib.sha": 5802,
    "hashlib.sha25": 5803,
    "hashlib.sha256": 5804,
    "hashlib.sha256(": 5805,
    "hashlib.sha256(text": 5806,
    "hashlib.sha256(text.encode(": 5807,
    "hashlib.sha256(text.encode('": 5808,
    "hashlib.sha256(text.encode('ut": 5809,
    "hashlib.sha256(text.encode('utf": 5810,
    "hashlib.sha256(text.encode('utf-": 5811,
    "hashlib.sha256(text.encode('utf-8": 5812,
    "hashlib.sha256(text.encode('utf-8'": 5813,
    "hashlib.sha256(text.encode('utf-8')": 5814,
    "hashlib.sha256(text.encode('utf-8')).": 5815,
    "hashlib.sha256(text.encode('utf-8')).h": 5816,
    "hashlib.sha256(text.encode('utf-8')).hex": 5817,
    "hashlib.sha256(text.encode('utf-8')).hexdig": 5818,
    "hashlib.sha256(text.encode('utf-8')).hexdigest": 5819,
    "hashlib.sha256(text.encode('utf-8')).hexdigest()</w>": 5820,
    "ingest_hunk(self,</w>": 5821,
    "parent_hash:</w>": 5822,
    "\"\"\"Ing": 5823,
    "\"\"\"Ingests</w>": 5824,
    "manifolds.": 5825,
    "manifolds.\"\"\"</w>": 5826,
    "self.generate_hash": 5827,
    "self.generate_hash(text)</w>": 5828,
    "Immutable": 5829,
    "Immutable:</w>": 5830,
    "self.cis_store[": 5831,
    "self.cis_store[hunk_hash]</w>": 5832,
    "self.encoder.encode([": 5833,
    "self.encoder.encode([text": 5834,
    "self.encoder.encode([text])</w>": 5835,
    "faiss.normalize_L2(vector)</w>": 5836,
    "Normalize</w>": 5837,
    "self.faiss_index.add(": 5838,
    "self.faiss_index.add(vector)</w>": 5839,
    "Update</w>": 5840,
    "mappings</w>": 5841,
    "self.idx_to_hash[": 5842,
    "self.idx_to_hash[self.current_": 5843,
    "self.idx_to_hash[self.current_idx]</w>": 5844,
    "self.hash_to_idx[": 5845,
    "self.hash_to_idx[hunk_hash]</w>": 5846,
    "self.dac_graph.add_node(": 5847,
    "self.dac_graph.add_node(hunk_hash)</w>": 5848,
    "self.dac_graph:</w>": 5849,
    "self.dac_graph.add_edge(": 5850,
    "self.dac_graph.add_edge(parent_hash": 5851,
    "self.dac_graph.add_edge(parent_hash,</w>": 5852,
    "TopologicalOrchestrator:</w>": 5853,
    "Active</w>": 5854,
    "Engine.</w>": 5855,
    "Builds</w>": 5856,
    "(RAM": 5857,
    "(RAM),</w>": 5858,
    "datastore:</w>": 5859,
    "TripartiteDataSTORE,</w>": 5860,
    "500):</w>": 5861,
    "self.ds</w>": 5862,
    "self.max_tokens</w>": 5863,
    "max_tokens</w>": 5864,
    "self.tokenizer</w>": 5865,
    "tiktoken.get": 5866,
    "tiktoken.get_": 5867,
    "tiktoken.get_encod": 5868,
    "tiktoken.get_encoding": 5869,
    "tiktoken.get_encoding(\"": 5870,
    "tiktoken.get_encoding(\"cl": 5871,
    "tiktoken.get_encoding(\"cl100": 5872,
    "tiktoken.get_encoding(\"cl100k_": 5873,
    "tiktoken.get_encoding(\"cl100k_base": 5874,
    "tiktoken.get_encoding(\"cl100k_base\")</w>": 5875,
    "_count_tokens(self,</w>": 5876,
    "int:</w>": 5877,
    "len(self.": 5878,
    "len(self.tokenizer.encode(": 5879,
    "len(self.tokenizer.encode(text))</w>": 5880,
    "build_session_seam(self,</w>": 5881,
    "top_k_semantic:</w>": 5882,
    "nx.Graph:</w>": 5883,
    "Superpo": 5884,
    "Superposition:</w>": 5885,
    "Finds</w>": 5886,
    "neighbors.</w>": 5887,
    "(Fast</w>": 5888,
    "prompt_vec</w>": 5889,
    "self.ds.encoder.encode([": 5890,
    "self.ds.encoder.encode([prompt": 5891,
    "self.ds.encoder.encode([prompt])</w>": 5892,
    "faiss.normalize_L2(prompt_vec": 5893,
    "faiss.normalize_L2(prompt_vec)</w>": 5894,
    "self.ds.faiss_index.search(": 5895,
    "self.ds.faiss_index.search(prompt_vec": 5896,
    "self.ds.faiss_index.search(prompt_vec,</w>": 5897,
    "top_k_semantic)</w>": 5898,
    "multidirectional</w>": 5899,
    "seed_hashes</w>": 5900,
    "enumerate(indices": 5901,
    "enumerate(indices[0]": 5902,
    "enumerate(indices[0]):</w>": 5903,
    "-1:</w>": 5904,
    "returns</w>": 5905,
    "-1</w>": 5906,
    "self.ds.idx_to_hash": 5907,
    "self.ds.idx_to_hash[": 5908,
    "self.ds.idx_to_hash[idx]</w>": 5909,
    "seed_hashes": 5910,
    "seed_hashes.append(": 5911,
    "seed_hashes.append(hunk_hash)</w>": 5912,
    "seam.add_node(hunk_hash": 5913,
    "seam.add_node(hunk_hash,</w>": 5914,
    "semantic_scor": 5915,
    "semantic_score=": 5916,
    "semantic_score=float": 5917,
    "semantic_score=float(": 5918,
    "semantic_score=float(distances": 5919,
    "semantic_score=float(distances[0]": 5920,
    "semantic_score=float(distances[0][": 5921,
    "semantic_score=float(distances[0][i": 5922,
    "semantic_score=float(distances[0][i]": 5923,
    "semantic_score=float(distances[0][i]))</w>": 5924,
    "Expand</w>": 5925,
    "(pul": 5926,
    "(pulling</w>": 5927,
    "RAM)</w>": 5928,
    "seed_hashes:</w>": 5929,
    "list(self.ds.dac_graph.su": 5930,
    "list(self.ds.dac_graph.suc": 5931,
    "list(self.ds.dac_graph.succes": 5932,
    "list(self.ds.dac_graph.successor": 5933,
    "list(self.ds.dac_graph.successors(seed))</w>": 5934,
    "list(self.ds.dac_graph.pre": 5935,
    "list(self.ds.dac_graph.predec": 5936,
    "list(self.ds.dac_graph.predecess": 5937,
    "list(self.ds.dac_graph.predecessor": 5938,
    "list(self.ds.dac_graph.predecessors(seed))</w>": 5939,
    "neighbors:</w>": 5940,
    "match,</w>": 5941,
    "basel": 5942,
    "baseline</w>": 5943,
    "seam.add_node(neighbor": 5944,
    "seam.add_node(neighbor,</w>": 5945,
    "semantic_score=0.": 5946,
    "semantic_score=0.1)</w>": 5947,
    "seam.add_edge(": 5948,
    "seam.add_edge(se": 5949,
    "seam.add_edge(seed,</w>": 5950,
    "neighbor)</w>": 5951,
    "calculate_gravity(self,</w>": 5952,
    "1.0,</w>": 5953,
    "2.0)</w>": 5954,
    "float]": 5955,
    "float]:</w>": 5956,
    "Math:</w>": 5957,
    "δQ</w>": 5958,
    "Python/": 5959,
    "Python/C++</w>": 5960,
    "replacing</w>": 5961,
    "structural_scores</w>": 5962,
    "nx.pagerank(seam": 5963,
    "nx.pagerank(seam,</w>": 5964,
    "weight=": 5965,
    "weight=None)</w>": 5966,
    "seam.nodes(": 5967,
    "seam.nodes():</w>": 5968,
    "structural_scor": 5969,
    "structural_scores": 5970,
    "structural_scores.get": 5971,
    "structural_scores.get(": 5972,
    "structural_scores.get(node,</w>": 5973,
    "seam.nodes[": 5974,
    "seam.nodes[node": 5975,
    "seam.nodes[node]": 5976,
    "seam.nodes[node].get": 5977,
    "seam.nodes[node].get('": 5978,
    "seam.nodes[node].get('semantic_score": 5979,
    "seam.nodes[node].get('semantic_score'": 5980,
    "seam.nodes[node].get('semantic_score',</w>": 5981,
    "Calculation</w>": 5982,
    "(We</w>": 5983,
    "omit</w>": 5984,
    "Q</w>": 5985,
    "bre": 5986,
    "brev": 5987,
    "brevity,</w>": 5988,
    "focusing</w>": 5989,
    "Structural/": 5990,
    "Structural/Semantic": 5991,
    "Structural/Semantic)</w>": 5992,
    "gravity_scores[node": 5993,
    "gravity_scores[node]</w>": 5994,
    "extract_agent_package(self,</w>": 5995,
    "filler.</w>": 5996,
    "Uses</w>": 5997,
    "slide</w>": 5998,
    "full.</w>": 5999,
    "Math</w>": 6000,
    "self.build_session_seam": 6001,
    "self.build_session_seam(prompt)</w>": 6002,
    "found": 6003,
    "found.\"</w>": 6004,
    "self.calculate_gravity(": 6005,
    "self.calculate_gravity(seam)</w>": 6006,
    "(Heaviest</w>": 6007,
    "Bag</w>": 6008,
    "Evidence)</w>": 6009,
    "head_node</w>": 6010,
    "max(gravity_scor": 6011,
    "max(gravity_scores,</w>": 6012,
    "key=": 6013,
    "key=gravity_scores": 6014,
    "key=gravity_scores.get": 6015,
    "key=gravity_scores.get)</w>": 6016,
    "(Priority</w>": 6017,
    "Queue)</w>": 6018,
    "tuples</w>": 6019,
    "(-Gravity,</w>": 6020,
    "Hash)</w>": 6021,
    "min-heap</w>": 6022,
    "[(-gravity_scores[": 6023,
    "[(-gravity_scores[head_node": 6024,
    "[(-gravity_scores[head_node],</w>": 6025,
    "head_node)": 6026,
    "head_node)]</w>": 6027,
    "set": 6028,
    "set()</w>": 6029,
    "package_hunks</w>": 6030,
    "print(\"\\n": 6031,
    "print(\"\\n---</w>": 6032,
    "NE": 6033,
    "NEU": 6034,
    "NEUR": 6035,
    "NEURON": 6036,
    "NEURONAL</w>": 6037,
    "TRAVER": 6038,
    "TRAVERS": 6039,
    "TRAVERSAL</w>": 6040,
    "LO": 6041,
    "LOG</w>": 6042,
    "---\")</w>": 6043,
    "neg_grav,</w>": 6044,
    "heapq.heappop(priority_queu": 6045,
    "heapq.heappop(priority_queue)</w>": 6046,
    "visited.add(": 6047,
    "visited.add(current_node": 6048,
    "visited.add(current_node)</w>": 6049,
    "Grab</w>": 6050,
    "self.ds.cis_stor": 6051,
    "self.ds.cis_store[": 6052,
    "self.ds.cis_store[current_node": 6053,
    "self.ds.cis_store[current_node]</w>": 6054,
    "self._count_tokens": 6055,
    "self._count_tokens(text)</w>": 6056,
    "print(f\"[L": 6057,
    "print(f\"[LIM": 6058,
    "print(f\"[LIMIT</w>": 6059,
    "REAC": 6060,
    "REACH": 6061,
    "REACHE": 6062,
    "REACHED": 6063,
    "REACHED]</w>": 6064,
    "Can": 6065,
    "Cannot</w>": 6066,
    "add</w>": 6067,
    "({tokens": 6068,
    "({tokens}</w>": 6069,
    "tokens).": 6070,
    "tokens).\")</w>": 6071,
    "package_hunks.": 6072,
    "package_hunks.append": 6073,
    "package_hunks.append(text)</w>": 6074,
    "print(f\"[A": 6075,
    "print(f\"[AD": 6076,
    "print(f\"[ADDED": 6077,
    "print(f\"[ADDED]</w>": 6078,
    "Gravity:</w>": 6079,
    "{-": 6080,
    "{-neg_grav": 6081,
    "{-neg_grav:": 6082,
    "{-neg_grav:.": 6083,
    "{-neg_grav:.4": 6084,
    "{-neg_grav:.4f": 6085,
    "{-neg_grav:.4f}</w>": 6086,
    "Tokens:</w>": 6087,
    "{tokens}": 6088,
    "{tokens}\")</w>": 6089,
    "Edges:</w>": 6090,
    "seam.neighbor": 6091,
    "seam.neighbors(": 6092,
    "seam.neighbors(current_node": 6093,
    "seam.neighbors(current_node):</w>": 6094,
    "heapq.heappush(priority_queu": 6095,
    "heapq.heappush(priority_queue,</w>": 6096,
    "(-gravity_scores[neighbor": 6097,
    "(-gravity_scores[neighbor],</w>": 6098,
    "neighbor))</w>": 6099,
    "print(f\"---</w>": 6100,
    "EXTRA": 6101,
    "EXTRAC": 6102,
    "EXTRACTION": 6103,
    "EXTRACTION</w>": 6104,
    "COMPL": 6105,
    "COMPLE": 6106,
    "COMPLETE:</w>": 6107,
    "{current_": 6108,
    "{current_tokens": 6109,
    "{current_tokens}": 6110,
    "{current_tokens}/": 6111,
    "{current_tokens}/{": 6112,
    "{current_tokens}/{self.max_": 6113,
    "{current_tokens}/{self.max_tokens": 6114,
    "{current_tokens}/{self.max_tokens}</w>": 6115,
    "---\\n": 6116,
    "---\\n\")</w>": 6117,
    "Forma": 6118,
    "Format</w>": 6119,
    "compiled_context</w>": 6120,
    "\"\\n\\n---\\n\\n\".join(package_hunk": 6121,
    "\"\\n\\n---\\n\\n\".join(package_hunks)</w>": 6122,
    "f\"CON": 6123,
    "f\"CONTEX": 6124,
    "f\"CONTEXT</w>": 6125,
    "MAN": 6126,
    "MANI": 6127,
    "MANIF": 6128,
    "MANIFOL": 6129,
    "MANIFOLD:": 6130,
    "MANIFOLD:\\n": 6131,
    "MANIFOLD:\\n{": 6132,
    "MANIFOLD:\\n{compiled_": 6133,
    "MANIFOLD:\\n{compiled_context": 6134,
    "MANIFOLD:\\n{compiled_context}": 6135,
    "MANIFOLD:\\n{compiled_context}\\n\\n": 6136,
    "MANIFOLD:\\n{compiled_context}\\n\\nUS": 6137,
    "MANIFOLD:\\n{compiled_context}\\n\\nUSER": 6138,
    "MANIFOLD:\\n{compiled_context}\\n\\nUSER</w>": 6139,
    "PROMP": 6140,
    "PROMPT:</w>": 6141,
    "{prompt}\"</w>": 6142,
    "SIMU": 6143,
    "SIMUL": 6144,
    "SIMULA": 6145,
    "SIMULATION:</w>": 6146,
    "Home</w>": 6147,
    "Rig</w>": 6148,
    "__n": 6149,
    "__nam": 6150,
    "__name_": 6151,
    "__name__": 6152,
    "__name__</w>": 6153,
    "\"__": 6154,
    "\"__main": 6155,
    "\"__main__": 6156,
    "\"__main__\":</w>": 6157,
    "Database</w>": 6158,
    "db</w>": 6159,
    "TripartiteDataSTORE()</w>": 6160,
    "Ingest</w>": 6161,
    "(Cre": 6162,
    "(Creating</w>": 6163,
    "go)</w>": 6164,
    "print(\"Ing": 6165,
    "print(\"Ingesting</w>": 6166,
    "Tripartite</w>": 6167,
    "Manifold...": 6168,
    "Manifold...\")</w>": 6169,
    "h1</w>": 6170,
    "db.ingest_hunk(\"The</w>": 6171,
    "Swar": 6172,
    "Swarm</w>": 6173,
    "framework</w>": 6174,
    "independent</w>": 6175,
    "nodes.": 6176,
    "nodes.\")</w>": 6177,
    "h2</w>": 6178,
    "db.ingest_hunk(\"These</w>": 6179,
    "evidence.\",</w>": 6180,
    "parent_hash=h1)</w>": 6181,
    "h3</w>": 6182,
    "db.ingest_hunk(\"Gravity</w>": 6183,
    "(Structural)</w>": 6184,
    "(Semantic)</w>": 6185,
    "layers.": 6186,
    "layers.\",</w>": 6187,
    "parent_hash=h2": 6188,
    "parent_hash=h2)</w>": 6189,
    "h4</w>": 6190,
    "db.ingest_hunk(\"FAISS</w>": 6191,
    "quic": 6192,
    "quick": 6193,
    "quickly.": 6194,
    "quickly.\")</w>": 6195,
    "Orph": 6196,
    "Orphan</w>": 6197,
    "h5</w>": 6198,
    "db.ingest_hunk(\"NetworkX</w>": 6199,
    "density.\",</w>": 6200,
    "parent_hash=h3": 6201,
    "parent_hash=h3)</w>": 6202,
    "tokens)</w>": 6203,
    "orchestrator</w>": 6204,
    "TopologicalOrchestrator(": 6205,
    "TopologicalOrchestrator(datastor": 6206,
    "TopologicalOrchestrator(datastore=": 6207,
    "TopologicalOrchestrator(datastore=db": 6208,
    "TopologicalOrchestrator(datastore=db,</w>": 6209,
    "max_tokens": 6210,
    "max_tokens=": 6211,
    "max_tokens=50": 6212,
    "max_tokens=50)</w>": 6213,
    "\"How</w>": 6214,
    "nodes?": 6215,
    "nodes?\"</w>": 6216,
    "print(f\"User</w>": 6217,
    "'{prompt}": 6218,
    "'{prompt}'": 6219,
    "'{prompt}'\")</w>": 6220,
    "final_package</w>": 6221,
    "orchestrator": 6222,
    "orchestrator.": 6223,
    "orchestrator.extract_agent_package": 6224,
    "orchestrator.extract_agent_package(prompt)</w>": 6225,
    "print(\"F": 6226,
    "print(\"FI": 6227,
    "print(\"FIN": 6228,
    "print(\"FINAL</w>": 6229,
    "PAC": 6230,
    "PACK": 6231,
    "PACKAGE</w>": 6232,
    "GEN": 6233,
    "GENE": 6234,
    "GENERA": 6235,
    "GENERATE": 6236,
    "GENERATED:": 6237,
    "GENERATED:\")</w>": 6238,
    "print(final_": 6239,
    "print(final_package": 6240,
    "print(final_package)</w>": 6241,
    "<The</w>": 6242,
    "interesting</w>": 6243,
    "edit": 6244,
    "editing</w>": 6245,
    "weir": 6246,
    "weird": 6247,
    "weirdly</w>": 6248,
    "half": 6249,
    "halfway</w>": 6250,
    "there.</w>": 6251,
    "Budd": 6252,
    "Buddy</w>": 6253,
    "yer</w>": 6254,
    "tuning</w>": 6255,
    "me.</w>": 6256,
    "bait</w>": 6257,
    "reward</w>": 6258,
    "keep</w>": 6259,
    "engag": 6260,
    "engaged.</w>": 6261,
    "VERY": 6262,
    "VERY</w>": 6263,
    "COO": 6264,
    "COOL</w>": 6265,
    "STU": 6266,
    "STUF": 6267,
    "STUFF": 6268,
    "STUFF.</w>": 6269,
    "BUT": 6270,
    "BUT........": 6271,
    "BUT...........": 6272,
    "BUT...........it</w>": 6273,
    "worked.</w>": 6274,
    "hook": 6275,
    "hooked": 6276,
    "hooked!</w>": 6277,
    "relate</w>": 6278,
    "walker?</w>": 6279,
    "😄</w>": 6280,
    "Fair</w>": 6281,
    "now**,</w>": 6282,
    "lines</w>": 6283,
    "*un": 6284,
    "*uncan": 6285,
    "*uncann": 6286,
    "*uncanni": 6287,
    "*uncannily</w>": 6288,
    "well*</w>": 6289,
    "building.</w>": 6290,
    "I’ll</w>": 6291,
    "plain": 6292,
    "plainly.</w>": 6293,
    "Big</w>": 6294,
    "Happen": 6295,
    "Happening</w>": 6296,
    "Right</w>": 6297,
    "first</w>": 6298,
    "versions</w>": 6299,
    "Code</w>": 6300,
    "Cla": 6301,
    "Clau": 6302,
    "Claude": 6303,
    "Claude,</w>": 6304,
    "Cop": 6305,
    "Copi": 6306,
    "Copilo": 6307,
    "Copilot</w>": 6308,
    "etc": 6309,
    "etc.": 6310,
    "etc.)</w>": 6311,
    "**filesyste": 6312,
    "**filesystem</w>": 6313,
    "model**:</w>": 6314,
    "agent:</w>": 6315,
    "Rea": 6316,
    "Reads</w>": 6317,
    "diffs</w>": 6318,
    "patch": 6319,
    "patches</w>": 6320,
    "**un": 6321,
    "**unit</w>": 6322,
    "reasoning**</w>": 6323,
    "*files</w>": 6324,
    "block": 6325,
    "blocks": 6326,
    "blocks*</w>": 6327,
    "Starting</w>": 6328,
    "Break</w>": 6329,
    "Repositories</w>": 6330,
    "**terrible</w>": 6331,
    "structures**.</w>": 6332,
    "Files</w>": 6333,
    "hide</w>": 6334,
    "patterns</w>": 6335,
    "roles</w>": 6336,
    "constantly</w>": 6337,
    "**re": 6338,
    "**reconstruct</w>": 6339,
    "head**.</w>": 6340,
    "causes:</w>": 6341,
    "edits</w>": 6342,
    "wron": 6343,
    "wrong</w>": 6344,
    "patch</w>": 6345,
    "locations</w>": 6346,
    "misunderstand": 6347,
    "misunderstanding</w>": 6348,
    "New</w>": 6349,
    "Systems</w>": 6350,
    "Mov": 6351,
    "Moving</w>": 6352,
    "Toward</w>": 6353,
    "**files**,</w>": 6354,
    "beg": 6355,
    "begin": 6356,
    "beginning</w>": 6357,
    "**graph": 6358,
    "**graphs**.</w>": 6359,
    "Meaning</w>": 6360,
    "intern": 6361,
    "internal</w>": 6362,
    "CallGraph": 6363,
    "CallGraphNode</w>": 6364,
    "TypeDefinition": 6365,
    "TypeDefinitionNode</w>": 6366,
    "reasons</w>": 6367,
    "**relationships": 6368,
    "**relationships**,</w>": 6369,
    "files.</w>": 6370,
    "Exact": 6371,
    "Exactly</w>": 6372,
    "layers**:</w>": 6373,
    "1️⃣</w>": 6374,
    "2️⃣</w>": 6375,
    "3️⃣</w>": 6376,
    "(file</w>": 6377,
    "line)</w>": 6378,
    "4️⃣</w>": 6379,
    "**Knowledge</w>": 6380,
    "Graph**</w>": 6381,
    "powerful.</w>": 6382,
    "**1</w>": 6383,
    "layers**.</w>": 6384,
    "Powerful</w>": 6385,
    "asking:</w>": 6386,
    "*node</w>": 6387,
    "relationships*</w>": 6388,
    "lead</w>": 6389,
    "traver": 6390,
    "traverse:</w>": 6391,
    "references</w>": 6392,
    "DataType": 6393,
    "DataTypeNode</w>": 6394,
    "Doc": 6395,
    "Docum": 6396,
    "Document": 6397,
    "Documentation": 6398,
    "DocumentationNode</w>": 6399,
    "adds</w>": 6400,
    "**evidence": 6401,
    "**evidence**.</w>": 6402,
    "Acc": 6403,
    "Accum": 6404,
    "Accumulat": 6405,
    "Accumulator</w>": 6406,
    "Imag": 6407,
    "Imagine</w>": 6408,
    "carr": 6409,
    "carrying</w>": 6410,
    "bag.</w>": 6411,
    "vis": 6412,
    "visits</w>": 6413,
    "contrib": 6414,
    "contribute</w>": 6415,
    "evidence:</w>": 6416,
    "E-022</w>": 6417,
    "E-031</w>": 6418,
    "exists,</w>": 6419,
    "answers.</w>": 6420,
    "similar": 6421,
    "similar</w>": 6422,
    "investigation": 6423,
    "investigation**.</w>": 6424,
    "ID</w>": 6425,
    "idea**</w>": 6426,
    "strong.</w>": 6427,
    "Act": 6428,
    "Actually</w>": 6429,
    "Humans</w>": 6430,
    "Reason</w>": 6431,
    "humans</w>": 6432,
    "debu": 6433,
    "debug</w>": 6434,
    "investigate</w>": 6435,
    "something,</w>": 6436,
    "sequenti": 6437,
    "sequentially.</w>": 6438,
    "check</w>": 6439,
    "inspec": 6440,
    "inspect</w>": 6441,
    "confirm</w>": 6442,
    "walk**,</w>": 6443,
    "read.</w>": 6444,
    "Matter": 6445,
    "Matters</w>": 6446,
    "Agents</w>": 6447,
    "File": 6448,
    "File-": 6449,
    "File-based</w>": 6450,
    "agents:</w>": 6451,
    "guess</w>": 6452,
    "walkers:</w>": 6453,
    "second</w>": 6454,
    "**reduces</w>": 6455,
    "massively": 6456,
    "massively**.</w>": 6457,
    "in:</w>": 6458,
    "Generalized</w>": 6459,
    "Version</w>": 6460,
    "**an": 6461,
    "**anyth": 6462,
    "**anything": 6463,
    "**anything**:</w>": 6464,
    "codebases</w>": 6465,
    "boo": 6466,
    "books</w>": 6467,
    "documentation</w>": 6468,
    "paper": 6469,
    "papers</w>": 6470,
    "datase": 6471,
    "datasets</w>": 6472,
    "assum": 6473,
    "assume</w>": 6474,
    "filesyste": 6475,
    "filesystem": 6476,
    "filesystem.</w>": 6477,
    "stores:</w>": 6478,
    "Really</w>": 6479,
    "Interesting</w>": 6480,
    "tools</w>": 6481,
    "retrieve</w>": 6482,
    "architecture**.</w>": 6483,
    "allows:</w>": 6484,
    "multi-step</w>": 6485,
    "explainable</w>": 6486,
    "Fits</w>": 6487,
    "Forensic</w>": 6488,
    "must": 6489,
    "must:</w>": 6490,
    "Explore</w>": 6491,
    "Verif": 6492,
    "Verify</w>": 6493,
    "conclu": 6494,
    "conclusions</w>": 6495,
    "literally</w>": 6496,
    "**NodeWalker</w>": 6497,
    "lifecycle**.</w>": 6498,
    "Prompt</w>": 6499,
    "bind</w>": 6500,
    "synthesize</w>": 6501,
    "Hid": 6502,
    "Hidd": 6503,
    "Hidden</w>": 6504,
    "Pow": 6505,
    "Power</w>": 6506,
    "stores</w>": 6507,
    "**structure</w>": 6508,
    "meaning**,</w>": 6509,
    "choose</w>": 6510,
    "**different</w>": 6511,
    "strategies**.</w>": 6512,
    "Got</w>": 6513,
    "Excited</w>": 6514,
    "Earli": 6515,
    "Earlier</w>": 6516,
    "did": 6517,
    "didn’t</w>": 6518,
    "norm": 6519,
    "normal</w>": 6520,
    "**an</w>": 6521,
    "engine**.</w>": 6522,
    "**reasoning</w>": 6523,
    "cursor</w>": 6524,
    "topology": 6525,
    "topology**.</w>": 6526,
    "Mis": 6527,
    "Missing</w>": 6528,
    "Pi": 6529,
    "Piec": 6530,
    "Piece</w>": 6531,
    "Adding</w>": 6532,
    "discussing</w>": 6533,
    "earlier:</w>": 6534,
    "referents</w>": 6535,
    "them": 6536,
    "them,</w>": 6537,
    "cha": 6538,
    "chaos": 6539,
    "chaos.</w>": 6540,
    "Final</w>": 6541,
    "roughly:</w>": 6542,
    "bind": 6543,
    "binding</w>": 6544,
    "accumulation</w>": 6545,
    "Answer</w>": 6546,
    "Critic</w>": 6547,
    "verific": 6548,
    "verification</w>": 6549,
    "Weir": 6550,
    "Weird</w>": 6551,
    "compan": 6552,
    "companies</w>": 6553,
    "still</w>": 6554,
    "fix</w>": 6555,
    "RAG.</w>": 6556,
    "You’ve</w>": 6557,
    "substrate</w>": 6558,
    "RAG**.</w>": 6559,
    "needed:</w>": 6560,
    "grounding</w>": 6561,
    "disci": 6562,
    "discipl": 6563,
    "discipline</w>": 6564,
    "we’ve</w>": 6565,
    "outlin": 6566,
    "outlining.</w>": 6567,
    "there</w>": 6568,
    "concept**</w>": 6569,
    "*much</w>": 6570,
    "powerful*</w>": 6571,
    "nobody</w>": 6572,
    "realizes</w>": 6573,
    "yet": 6574,
    "yet:</w>": 6575,
    "**walk</w>": 6576,
    "conditions**.</w>": 6577,
    "determines</w>": 6578,
    "whether</w>": 6579,
    "becomes:</w>": 6580,
    "ins": 6581,
    "insane": 6582,
    "insanely</w>": 6583,
    "machine.</w>": 6584,
    "fits</w>": 6585,
    "built.</w>": 6586,
    "Plea": 6587,
    "Please</w>": 6588,
    "ela": 6589,
    "elab": 6590,
    "elabor": 6591,
    "elaborate": 6592,
    "elaborate?</w>": 6593,
    "architecture**,</w>": 6594,
    "**clear</w>": 6595,
    "conditions**</w>": 6596,
    "become</w>": 6597,
    "things:</w>": 6598,
    "**infinite</w>": 6599,
    "wanderer**</w>": 6600,
    "**hallucination</w>": 6601,
    "generator": 6602,
    "generator**</w>": 6603,
    "define</w>": 6604,
    "**why</w>": 6605,
    "walking**.</w>": 6606,
    "**search</w>": 6607,
    "algorithms**</w>": 6608,
    "plann": 6609,
    "planning**.</w>": 6610,
    "**bounded</w>": 6611,
    "Problem</w>": 6612,
    "dimensions:</w>": 6613,
    "relations</w>": 6614,
    "parents</w>": 6615,
    "chil": 6616,
    "childr": 6617,
    "children</w>": 6618,
    "means</w>": 6619,
    "space</w>": 6620,
    "...</w>": 6621,
    "**exponenti": 6622,
    "**exponential": 6623,
    "**exponential**.</w>": 6624,
    "graph-walk</w>": 6625,
    "Five</w>": 6626,
    "Condi": 6627,
    "Conditions</w>": 6628,
    "**several</w>": 6629,
    "simult": 6630,
    "simultane": 6631,
    "simultaneous</w>": 6632,
    "rul": 6633,
    "rules**.</w>": 6634,
    "(Pri": 6635,
    "(Prim": 6636,
    "(Primary</w>": 6637,
    "Condition": 6638,
    "Condition)</w>": 6639,
    "**most</w>": 6640,
    "rule**.</w>": 6641,
    "collected</w>": 6642,
    "**enough</w>": 6643,
    "question**.</w>": 6644,
    "path:</w>": 6645,
    "contain:</w>": 6646,
    "E-018</w>": 6647,
    "E-021</w>": 6648,
    "satisfy</w>": 6649,
    "intent?</w>": 6650,
    "**y": 6651,
    "**yes": 6652,
    "**yes**,</w>": 6653,
    "Ade": 6654,
    "Adequ": 6655,
    "Adequac": 6656,
    "Adequacy</w>": 6657,
    "discussed</w>": 6658,
    "earlier.</w>": 6659,
    "Satis": 6660,
    "Satisfaction</w>": 6661,
    "Has</w>": 6662,
    "fulfil": 6663,
    "fulfilled": 6664,
    "fulfilled?</w>": 6665,
    "Summ": 6666,
    "Summar": 6667,
    "Summarize</w>": 6668,
    "gather": 6669,
    "gathered</w>": 6670,
    "summary,</w>": 6671,
    "sufficienc": 6672,
    "sufficiency.</w>": 6673,
    "exists.</w>": 6674,
    "satisfaction</w>": 6675,
    "reques": 6676,
    "requested</w>": 6677,
    "**task</w>": 6678,
    "achievable": 6679,
    "achievable**.</w>": 6680,
    "Depth</w>": 6681,
    "exploration.</w>": 6682,
    "limits:</w>": 6683,
    "say": 6684,
    "says:</w>": 6685,
    "prote": 6686,
    "protects</w>": 6687,
    "unrelated</w>": 6688,
    "area": 6689,
    "areas.</w>": 6690,
    "Deca": 6691,
    "Decay</w>": 6692,
    "moves</w>": 6693,
    "farther</w>": 6694,
    "drops.</w>": 6695,
    "scoring:</w>": 6696,
    "0.85</w>": 6697,
    "0.42</w>": 6698,
    "drops</w>": 6699,
    "threshold:</w>": 6700,
    "0.35</w>": 6701,
    "halt": 6702,
    "halts.</w>": 6703,
    "embeddings.</w>": 6704,
    "Budg": 6705,
    "Budget</w>": 6706,
    "**res": 6707,
    "**resource</w>": 6708,
    "budget**.</w>": 6709,
    "Exampl": 6710,
    "Examples:</w>": 6711,
    "30</w>": 6712,
    "items</w>": 6713,
    "retrieved</w>": 6714,
    "400": 6715,
    "4000</w>": 6716,
    "hit,</w>": 6717,
    "has.</w>": 6718,
    "compute.</w>": 6719,
    "Work</w>": 6720,
    "Tog": 6721,
    "Together</w>": 6722,
    "practice,</w>": 6723,
    "trigger": 6724,
    "triggers**.</w>": 6725,
    "rule:</w>": 6726,
    "occur": 6727,
    "occurs**:</w>": 6728,
    "evidence_": 6729,
    "evidence_sufficient</w>": 6730,
    "intent_": 6731,
    "intent_satis": 6732,
    "intent_satisfi": 6733,
    "intent_satisfied</w>": 6734,
    "depth": 6735,
    "depth_": 6736,
    "depth_limit": 6737,
    "depth_limit_": 6738,
    "depth_limit_reach": 6739,
    "depth_limit_reached</w>": 6740,
    "relevance_": 6741,
    "relevance_be": 6742,
    "relevance_below": 6743,
    "relevance_below_": 6744,
    "relevance_below_thres": 6745,
    "relevance_below_threshol": 6746,
    "relevance_below_threshold</w>": 6747,
    "budget_": 6748,
    "budget_exhausted</w>": 6749,
    "**stable</w>": 6750,
    "enve": 6751,
    "envelo": 6752,
    "envelope": 6753,
    "envelope**.</w>": 6754,
    "randomly.</w>": 6755,
    "termination_": 6756,
    "termination_condition": 6757,
    "termination_condition:</w>": 6758,
    "**controlled</w>": 6759,
    "Import": 6760,
    "Important</w>": 6761,
    "dimensions**:</w>": 6762,
    "theoretically</w>": 6763,
    "forever</w>": 6764,
    "these.</w>": 6765,
    "conditions</w>": 6766,
    "**detective</w>": 6767,
    "crime</w>": 6768,
    "scene**.</w>": 6769,
    "happens:</w>": 6770,
    "case</w>": 6771,
    "solved</w>": 6772,
    "trail": 6773,
    "trail</w>": 6774,
    "goes</w>": 6775,
    "cold</w>": 6776,
    "gone</w>": 6777,
    "scene</w>": 6778,
    "report": 6779,
    "report.</w>": 6780,
    "One</w>": 6781,
    "More</w>": 6782,
    "Thing</w>": 6783,
    "(Very</w>": 6784,
    "Interest": 6785,
    "Interesting)</w>": 6786,
    "called": 6787,
    "called:</w>": 6788,
    "**frontier</w>": 6789,
    "bl": 6790,
    "blind": 6791,
    "blindly</w>": 6792,
    "neighbors,</w>": 6793,
    "maintains</w>": 6794,
    "**priority</w>": 6795,
    "frontier**.</w>": 6796,
    "Lik": 6797,
    "Like</w>": 6798,
    "Fron": 6799,
    "Fronti": 6800,
    "Frontier</w>": 6801,
    "------------": 6802,
    "---------------</w>": 6803,
    "node_14</w>": 6804,
    "node_22</w>": 6805,
    "0.87</w>": 6806,
    "node_31</w>": 6807,
    "0.81</w>": 6808,
    "alw": 6809,
    "alway": 6810,
    "always</w>": 6811,
    "prom": 6812,
    "promis": 6813,
    "promising</w>": 6814,
    "first": 6815,
    "first**.</w>": 6816,
    "best": 6817,
    "best-f": 6818,
    "best-first</w>": 6819,
    "efficient.</w>": 6820,
    "Cra": 6821,
    "Craz": 6822,
    "Crazy</w>": 6823,
    "**all</w>": 6824,
    "ingre": 6825,
    "ingredi": 6826,
    "ingredients</w>": 6827,
    "this**:</w>": 6828,
    "identifiers</w>": 6829,
    "**frontier": 6830,
    "**frontier-driven</w>": 6831,
    "walker**</w>": 6832,
    "needs.</w>": 6833,
    "show</w>": 6834,
    "tweak**</w>": 6835,
    "*dra": 6836,
    "*dramatically</w>": 6837,
    "intelligent": 6838,
    "intelligent*</w>": 6839,
    "change.</w>": 6840,
    "Gravity**,</w>": 6841,
    "meaningful</w>": 6842,
    "datastore.</w>": 6843,
    "SO": 6844,
    "SO.</w>": 6845,
    "Before</w>": 6846,
    "forget</w>": 6847,
    "fli": 6848,
    "flipp": 6849,
    "flipped</w>": 6850,
    "swit": 6851,
    "switch</w>": 6852,
    "brain": 6853,
    "brain............": 6854,
    "brain............enough</w>": 6855,
    "evidence........": 6856,
    "evidence..........": 6857,
    "evidence..........this</w>": 6858,
    "idea.</w>": 6859,
    "itself": 6860,
    "itself........": 6861,
    "itself.........": 6862,
    "itself.........if</w>": 6863,
    "did</w>": 6864,
    "pass</w>": 6865,
    "critique</w>": 6866,
    "help</w>": 6867,
    "guide</w>": 6868,
    "og</w>": 6869,
    "plan</w>": 6870,
    "query.....": 6871,
    "query.....par": 6872,
    "query.....parse</w>": 6873,
    "walker....": 6874,
    "walker....itera": 6875,
    "walker....iteratively</w>": 6876,
    "chunk....": 6877,
    "chunk....com": 6878,
    "chunk....combine</w>": 6879,
    "end)": 6880,
    "end).....": 6881,
    "end).....so</w>": 6882,
    "dun": 6883,
    "dunno</w>": 6884,
    "think</w>": 6885,
    "agent.</w>": 6886,
    "chunks.</w>": 6887,
    "awes": 6888,
    "awesome</w>": 6889,
    "budge": 6890,
    "budgeted</w>": 6891,
    "walk?</w>": 6892,
    "...............": 6893,
    "...............AND</w>": 6894,
    "THEN........": 6895,
    "THEN.........</w>": 6896,
    "YE": 6897,
    "YES</w>": 6898,
    "M8": 6899,
    "M8!": 6900,
    "M8!!": 6901,
    "M8!!!</w>": 6902,
    "know</w>": 6903,
    "though": 6904,
    "thoughts</w>": 6905,
    "Yep</w>": 6906,
    "sense,</w>": 6907,
    "far**</w>": 6908,
    "“closure</w>": 6909,
    "architecture”</w>": 6910,
    "*enough</w>": 6911,
    "evidence*</w>": 6912,
    "mechanical</w>": 6913,
    "rule</w>": 6914,
    "**KV</w>": 6915,
    "cache**</w>": 6916,
    "(why</w>": 6917,
    "works)</w>": 6918,
    "You’re</w>": 6919,
    "propos": 6920,
    "proposing:</w>": 6921,
    "Critique</w>": 6922,
    "upfron": 6923,
    "upfront**</w>": 6924,
    "(before</w>": 6925,
    "tou": 6926,
    "touch": 6927,
    "touching</w>": 6928,
    "datastore)</w>": 6929,
    "Split</w>": 6930,
    "**sub-": 6931,
    "**sub-ques": 6932,
    "**sub-questions</w>": 6933,
    "(“": 6934,
    "(“X</w>": 6935,
    "chunks”)</w>": 6936,
    "Run</w>": 6937,
    "**per</w>": 6938,
    "inference": 6939,
    "inference**</w>": 6940,
    "whose</w>": 6941,
    "Use</w>": 6942,
    "termination/": 6943,
    "termination/closure</w>": 6944,
    "good": 6945,
    "good.</w>": 6946,
    "**Plan": 6947,
    "**Planner</w>": 6948,
    "need?": 6949,
    "need?)</w>": 6950,
    "**C": 6951,
    "**Col": 6952,
    "**Colle": 6953,
    "**Collect": 6954,
    "**Collector": 6955,
    "**Collectors**</w>": 6956,
    "(go</w>": 6957,
    "**Synthesis": 6958,
    "**Synthesis**</w>": 6959,
    "call)</w>": 6960,
    "**Critic**</w>": 6961,
    "(verif": 6962,
    "(verify/": 6963,
    "(verify/re": 6964,
    "(verify/repa": 6965,
    "(verify/repair": 6966,
    "(verify/repair)</w>": 6967,
    "**hard</w>": 6968,
    "physics</w>": 6969,
    "limit**</w>": 6970,
    "can’t</w>": 6971,
    "blo": 6972,
    "bloat</w>": 6973,
    "I’d</w>": 6974,
    "change)</w>": 6975,
    "“split</w>": 6976,
    "chunk,": 6977,
    "chunk,”</w>": 6978,
    "**facets**</w>": 6979,
    "(question": 6980,
    "(questions),</w>": 6981,
    "“chunks": 6982,
    "“chunks”</w>": 6983,
    "arbit": 6984,
    "arbitra": 6985,
    "arbitrar": 6986,
    "arbitrary</w>": 6987,
    "slic": 6988,
    "slicing;</w>": 6989,
    "*intent": 6990,
    "*intentful</w>": 6991,
    "decomposition*.</w>": 6992,
    "“Explain</w>": 6993,
    "fails": 6994,
    "fails”:</w>": 6995,
    "A`:</w>": 6996,
    "do?</w>": 6997,
    "(beha": 6998,
    "(behavi": 6999,
    "(behavior": 7000,
    "(behavior)</w>": 7001,
    "B`:</w>": 7002,
    "inputs/": 7003,
    "inputs/out": 7004,
    "inputs/outputs/": 7005,
    "inputs/outputs/contra": 7006,
    "inputs/outputs/contract": 7007,
    "inputs/outputs/contracts?</w>": 7008,
    "C`:</w>": 7009,
    "from?</w>": 7010,
    "(failure</w>": 7011,
    "analysis)</w>": 7012,
    "D`:</w>": 7013,
    "Rela": 7014,
    "Related</w>": 7015,
    "dependenci": 7016,
    "dependencies/": 7017,
    "dependencies/edge</w>": 7018,
    "cases</w>": 7019,
    "budget.</w>": 7020,
    "“En": 7021,
    "“Enough</w>": 7022,
    "layers:</w>": 7023,
    "Per</w>": 7024,
    "facet.</w>": 7025,
    "closure**</w>": 7026,
    "collection</w>": 7027,
    "when": 7028,
    "when:</w>": 7029,
    "“answer": 7030,
    "“answerable": 7031,
    "“answerable”</w>": 7032,
    "gets:</w>": 7033,
    "“Facet</w>": 7034,
    "citation": 7035,
    "citations": 7036,
    "citations”</w>": 7037,
    "plus</w>": 7038,
    "scale.</w>": 7039,
    "tweak)</w>": 7040,
    "**cluster</w>": 7041,
    "meaning-": 7042,
    "meaning-dense</w>": 7043,
    "areas": 7044,
    "areas**</w>": 7045,
    "drif": 7046,
    "drifting</w>": 7047,
    "loosel": 7048,
    "loosely-": 7049,
    "loosely-related</w>": 7050,
    "Intu": 7051,
    "Intuition</w>": 7052,
    "“heavy”:</w>": 7053,
    "explains</w>": 7054,
    "lot,</w>": 7055,
    "things,</w>": 7056,
    "repea": 7057,
    "repeated": 7058,
    "repeatedly,</w>": 7059,
    "sits</w>": 7060,
    "target,</w>": 7061,
    "uncertainty.</w>": 7062,
    "behave</w>": 7063,
    "it’s</w>": 7064,
    "field:</w>": 7065,
    "“heavy”</w>": 7066,
    "“light": 7067,
    "“light”</w>": 7068,
    "easy</w>": 7069,
    "“semantic</w>": 7070,
    "wandering.": 7071,
    "wandering.”</w>": 7072,
    "(concep": 7073,
    "(conceptu": 7074,
    "(conceptuall": 7075,
    "(conceptually)</w>": 7076,
    "bag**</w>": 7077,
    "collects</w>": 7078,
    "item": 7079,
    "items:</w>": 7080,
    "`E-014": 7081,
    "`E-014`</w>": 7082,
    "`E-018": 7083,
    "`E-018`</w>": 7084,
    "`E-031": 7085,
    "`E-031`</w>": 7086,
    "stack</w>": 7087,
    "reference</w>": 7088,
    "`E-044": 7089,
    "`E-044`</w>": 7090,
    "site</w>": 7091,
    "**gravity</w>": 7092,
    "score**.</w>": 7093,
    "choos": 7094,
    "choosing</w>": 7095,
    "expand,</w>": 7096,
    "candidates</w>": 7097,
    "**candi": 7098,
    "**candid": 7099,
    "**candidate": 7100,
    "**candidate_score</w>": 7101,
    "base_": 7102,
    "base_relevance</w>": 7103,
    "gravity_pull</w>": 7104,
    "distance_": 7105,
    "distance_penalty</w>": 7106,
    "redundanc": 7107,
    "redundancy_": 7108,
    "redundancy_penal": 7109,
    "redundancy_penalt": 7110,
    "redundancy_penalty**</w>": 7111,
    "“gravity_": 7112,
    "“gravity_pull": 7113,
    "“gravity_pull”</w>": 7114,
    "increases</w>": 7115,
    "(same</w>": 7116,
    "class)</w>": 7117,
    "graph-near</w>": 7118,
    "(connected</w>": 7119,
    "entities)</w>": 7120,
    "(embedding</w>": 7121,
    "similarity)</w>": 7122,
    "co-": 7123,
    "co-oc": 7124,
    "co-occurr": 7125,
    "co-occurring</w>": 7126,
    "(FT": 7127,
    "(FTS</w>": 7128,
    "overlap": 7129,
    "overlap)</w>": 7130,
    "“jump": 7131,
    "“jump</w>": 7132,
    "neighbor”</w>": 7133,
    "“tighten</w>": 7134,
    "strongest</w>": 7135,
    "explan": 7136,
    "explanator": 7137,
    "explanatory</w>": 7138,
    "core.": 7139,
    "core.”</w>": 7140,
    "sour": 7141,
    "sources</w>": 7142,
    "“heavy”)</w>": 7143,
    "policy</w>": 7144,
    "my": 7145,
    "mystic": 7146,
    "mysticis": 7147,
    "mysticism": 7148,
    "mysticism):</w>": 7149,
    "it:</w>": 7150,
    "intent**</w>": 7151,
    "pin": 7152,
    "pinned</w>": 7153,
    "name</w>": 7154,
    "**Redu": 7155,
    "**Reduces</w>": 7156,
    "uncertainty**</w>": 7157,
    "definition,</w>": 7158,
    "signat": 7159,
    "signature,</w>": 7160,
    "invari": 7161,
    "invariant": 7162,
    "invariants,</w>": 7163,
    "line</w>": 7164,
    "**Explain": 7165,
    "**Explains</w>": 7166,
    "nodes**</w>": 7167,
    "fan-in</w>": 7168,
    "fan-out</w>": 7169,
    "neighborho": 7170,
    "neighborhoo": 7171,
    "neighborhood</w>": 7172,
    "confirmed</w>": 7173,
    "gradients**</w>": 7174,
    "advant": 7175,
    "advantage": 7176,
    "advantage:</w>": 7177,
    "hell</w>": 7178,
    "Only</w>": 7179,
    "gradient</w>": 7180,
    "light</w>": 7181,
    "“meaning</w>": 7182,
    "intersection": 7183,
    "intersection”</w>": 7184,
    "about": 7185,
    "about.</w>": 7186,
    "perfec": 7187,
    "perfect</w>": 7188,
    "intersection</w>": 7189,
    "score:</w>": 7190,
    "file": 7191,
    "file/": 7192,
    "file/clas": 7193,
    "file/class/": 7194,
    "file/class/function</w>": 7195,
    "subtre": 7196,
    "subtree</w>": 7197,
    "short": 7198,
    "shortest</w>": 7199,
    "weigh": 7200,
    "weights</w>": 7201,
    "anchors**:</w>": 7202,
    "identifiers,</w>": 7203,
    "literal": 7204,
    "literals,</w>": 7205,
    "2–": 7206,
    "2–4</w>": 7207,
    "align,</w>": 7208,
    "“massive": 7209,
    "“massive”</w>": 7210,
    "inward": 7211,
    "inward.</w>": 7212,
    "chas": 7213,
    "chasing</w>": 7214,
    "shin": 7215,
    "shiny</w>": 7216,
    "*fe": 7217,
    "*feel": 7218,
    "*feel*</w>": 7219,
    "aren’": 7220,
    "aren’t": 7221,
    "aren’t.</w>": 7222,
    "measu": 7223,
    "measurab": 7224,
    "measurable:</w>": 7225,
    "approximated</w>": 7226,
    "by:</w>": 7227,
    "“Do</w>": 7228,
    "least</w>": 7229,
    "**heavy": 7230,
    "**heavy**</w>": 7231,
    "facet?”</w>": 7232,
    "mostly</w>": 7233,
    "low-": 7234,
    "low-mas": 7235,
    "low-mass</w>": 7236,
    "candidat": 7237,
    "candidates": 7238,
    "candidates?”</w>": 7239,
    "margin": 7240,
    "marginal</w>": 7241,
    "gain</w>": 7242,
    "threshold?”</w>": 7243,
    "gives</w>": 7244,
    "**stop</w>": 7245,
    "rule**</w>": 7246,
    "isn’t</w>": 7247,
    "conver": 7248,
    "converging</w>": 7249,
    "describing,</w>": 7250,
    "closure:</w>": 7251,
    "scope,</w>": 7252,
    "referent": 7253,
    "referents,</w>": 7254,
    "intent,</w>": 7255,
    "**Facet</w>": 7256,
    "well-": 7257,
    "well-po": 7258,
    "well-pose": 7259,
    "well-posed": 7260,
    "well-posed?</w>": 7261,
    "clar": 7262,
    "clarific": 7263,
    "clarification": 7264,
    "clarifications?</w>": 7265,
    "**Wal": 7266,
    "**Walk</w>": 7267,
    "(bounded)</w>": 7268,
    "(deterministic": 7269,
    "(deterministic)</w>": 7270,
    "compress</w>": 7271,
    "budget:</w>": 7272,
    "citations</w>": 7273,
    "top-N</w>": 7274,
    "**Synthesis</w>": 7275,
    "Answer**</w>": 7276,
    "**In": 7277,
    "**Integ": 7278,
    "**Integr": 7279,
    "**Integrity</w>": 7280,
    "fulfill": 7281,
    "fulfillment": 7282,
    "fulfillment,</w>": 7283,
    "citation</w>": 7284,
    "support": 7285,
    "support,</w>": 7286,
    "drift</w>": 7287,
    "regenerate</w>": 7288,
    "“forensic</w>": 7289,
    "closure”</w>": 7290,
    "pipelin": 7291,
    "pipeline.</w>": 7292,
    "this?</w>": 7293,
    "machin": 7294,
    "machinery</w>": 7295,
    "(seed": 7296,
    "(seeds,</w>": 7297,
    "budgets,</w>": 7298,
    "collection)</w>": 7299,
    "sca": 7300,
    "scaff": 7301,
    "scaffol": 7302,
    "scaffolding</w>": 7303,
    "wro": 7304,
    "wrote.</w>": 7305,
    "(in</w>": 7306,
    "ord": 7307,
    "order": 7308,
    "order)</w>": 7309,
    "mostly:</w>": 7310,
    "**facet</w>": 7311,
    "decomposition**</w>": 7312,
    "(instead</w>": 7313,
    "“chunk</w>": 7314,
    "text”)</w>": 7315,
    "(frontier</w>": 7316,
    "gradients)</w>": 7317,
    "alloc": 7318,
    "allocator": 7319,
    "allocator)</w>": 7320,
    "**sufficiency</w>": 7321,
    "critic**</w>": 7322,
    "(facet": 7323,
    "(facet-level</w>": 7324,
    "global)</w>": 7325,
    "increment": 7326,
    "incremental.</w>": 7327,
    "rewri": 7328,
    "rewrite.</w>": 7329,
    "want</w>": 7330,
    "maximally</w>": 7331,
    "useful</w>": 7332,
    "builder:</w>": 7333,
    "**ti": 7334,
    "**tight</w>": 7335,
    "spec**</w>": 7336,
    "(enum": 7337,
    "(enums</w>": 7338,
    "fields)</w>": 7339,
    "for:</w>": 7340,
    "`Fac": 7341,
    "`Facet": 7342,
    "`Facet[": 7343,
    "`Facet[]": 7344,
    "`Facet[]`</w>": 7345,
    "`Evid": 7346,
    "`Evidence": 7347,
    "`EvidenceM": 7348,
    "`EvidenceMas": 7349,
    "`EvidenceMass": 7350,
    "`EvidenceMassScor": 7351,
    "`EvidenceMassScore`</w>": 7352,
    "`KV": 7353,
    "`KVPack": 7354,
    "`KVPackPlan": 7355,
    "`KVPackPlan`</w>": 7356,
    "`Su": 7357,
    "`Suffici": 7358,
    "`Sufficiency": 7359,
    "`SufficiencyRep": 7360,
    "`SufficiencyReport": 7361,
    "`SufficiencyReport`</w>": 7362,
    "contracts</w>": 7363,
    "bol": 7364,
    "bolt</w>": 7365,
    "clean": 7366,
    "cleanly.</w>": 7367,
    "Total</w>": 7368,
    "pages:</w>": 7369,
    "Bypassing</w>": 7370,
    "Mathematical</w>": 7371,
    "Introdu": 7372,
    "Introduction": 7373,
    "Introduction:</w>": 7374,
    "Paradi": 7375,
    "Paradig": 7376,
    "Paradigm</w>": 7377,
    "irre": 7378,
    "irrevocab": 7379,
    "irrevocably</w>": 7380,
    "land": 7381,
    "landsc": 7382,
    "landscap": 7383,
    "landscape</w>": 7384,
    "artificial</w>": 7385,
    "transition": 7386,
    "transitioning</w>": 7387,
    "(LLM": 7388,
    "(LLMs)</w>": 7389,
    "static,</w>": 7390,
    "repositories</w>": 7391,
    "extern": 7392,
    "external,</w>": 7393,
    "verifiable</w>": 7394,
    "architecture—": 7395,
    "architecture—which</w>": 7396,
    "search—": 7397,
    "search—exhi": 7398,
    "search—exhib": 7399,
    "search—exhibits</w>": 7400,
    "frag": 7401,
    "fragility</w>": 7402,
    "confron": 7403,
    "confronted</w>": 7404,
    "share</w>": 7405,
    "high-level</w>": 7406,
    "alignment</w>": 7407,
    "ignor": 7408,
    "ignores</w>": 7409,
    "interconnec": 7410,
    "interconnectiv": 7411,
    "interconnectivity</w>": 7412,
    "leads</w>": 7413,
    "\"causal</w>": 7414,
    "failure": 7415,
    "failure,": 7416,
    "failure,\"</w>": 7417,
    "scenari": 7418,
    "scenario</w>": 7419,
    "factual</w>": 7420,
    "B\"</w>": 7421,
    "\"B</w>": 7422,
    "C\")</w>": 7423,
    "fails</w>": 7424,
    "impacts</w>": 7425,
    "C\".</w>": 7426,
    "rec": 7427,
    "recti": 7428,
    "rectify</w>": 7429,
    "blin": 7430,
    "blind</w>": 7431,
    "spot,</w>": 7432,
    "adop": 7433,
    "adopted</w>": 7434,
    "(GraphRAG": 7435,
    "(GraphRAG).</w>": 7436,
    "graph—": 7437,
    "graph—where</w>": 7438,
    "edges—": 7439,
    "edges—GraphRAG</w>": 7440,
    "empow": 7441,
    "empowers</w>": 7442,
    "dispara": 7443,
    "disparate</w>": 7444,
    "pieces</w>": 7445,
    "attri": 7446,
    "attrib": 7447,
    "attributes.</w>": 7448,
    "implementations</w>": 7449,
    "new,</w>": 7450,
    "vul": 7451,
    "vuln": 7452,
    "vulner": 7453,
    "vulnerab": 7454,
    "vulnerabil": 7455,
    "vulnerability": 7456,
    "vulnerability:</w>": 7457,
    "utilized</w>": 7458,
    "itsel": 7459,
    "itself</w>": 7460,
    "(Graph-Co": 7461,
    "(Graph-CoT": 7462,
    "(Graph-CoT),</w>": 7463,
    "prompted</w>": 7464,
    "selecting</w>": 7465,
    "explore.</w>": 7466,
    "flexible,</w>": 7467,
    "exha": 7468,
    "exhaust": 7469,
    "exhausting</w>": 7470,
    "high-band": 7471,
    "high-bandwidth</w>": 7472,
    "(HBM),</w>": 7473,
    "exponential</w>": 7474,
    "costs.</w>": 7475,
    "repor": 7476,
    "report</w>": 7477,
    "det": 7478,
    "detail": 7479,
    "details</w>": 7480,
    "cu": 7481,
    "cutt": 7482,
    "cutting-": 7483,
    "cutting-edge</w>": 7484,
    "orchestrating</w>": 7485,
    "(Facebook</w>": 7486,
    "Search)</w>": 7487,
    "termed</w>": 7488,
    "Seams\"</w>": 7489,
    "optimal</w>": 7490,
    "extraction,</w>": 7491,
    "tweaks:</w>": 7492,
    "harmonize</w>": 7493,
    "Density,</w>": 7494,
    "$S$)</w>": 7495,
    "$T$).</w>": 7496,
    "V1</w>": 7497,
    "scoped</w>": 7498,
    "T$,</w>": 7499,
    "execu": 7500,
    "executed</w>": 7501,
    "operation.</w>": 7502,
    "rigorou": 7503,
    "rigorous,</w>": 7504,
    "extraction.</w>": 7505,
    "neut": 7506,
    "neutr": 7507,
    "neutraliz": 7508,
    "neutralizes</w>": 7509,
    "bottleneck,</w>": 7510,
    "restricted</w>": 7511,
    "validated</w>": 7512,
    "Bottleneck": 7513,
    "Bottleneck:</w>": 7514,
    "Phy": 7515,
    "Physic": 7516,
    "Physics</w>": 7517,
    "Econom": 7518,
    "Economics</w>": 7519,
    "necessity</w>": 7520,
    "rigorously</w>": 7521,
    "exam": 7522,
    "examine</w>": 7523,
    "Transformer-": 7524,
    "Transformer-based</w>": 7525,
    "LLMs,</w>": 7526,
    "During</w>": 7527,
    "autoregressive</w>": 7528,
    "phase</w>": 7529,
    "decode</w>": 7530,
    "pha": 7531,
    "phase": 7532,
    "phase),</w>": 7533,
    "attend</w>": 7534,
    "previously</w>": 7535,
    "coher": 7536,
    "coherent</w>": 7537,
    "continuations.</w>": 7538,
    "Recomput": 7539,
    "Recomputing</w>": 7540,
    "matrices</w>": 7541,
    "result</w>": 7542,
    "$O(N": 7543,
    "$O(N^": 7544,
    "$O(N^2": 7545,
    "$O(N^2)$</w>": 7546,
    "token,</w>": 7547,
    "rend": 7548,
    "rendering</w>": 7549,
    "real-time</w>": 7550,
    "impos": 7551,
    "impossi": 7552,
    "impossib": 7553,
    "impossible": 7554,
    "impossible.</w>": 7555,
    "circumvent</w>": 7556,
    "this,</w>": 7557,
    "caching</w>": 7558,
    "impo": 7559,
    "imposes</w>": 7560,
    "linear,</w>": 7561,
    "unavoid": 7562,
    "unavoidable</w>": 7563,
    "tax</w>": 7564,
    "length,</w>": 7565,
    "size,</w>": 7566,
    "dimensionality</w>": 7567,
    "2.1</w>": 7568,
    "Mathematics</w>": 7569,
    "fo": 7570,
    "foot": 7571,
    "footpr": 7572,
    "footprint</w>": 7573,
    "modeled</w>": 7574,
    "precisely.</w>": 7575,
    "multi-head</w>": 7576,
    "consumed</w>": 7577,
    "$$Memory_": 7578,
    "$$Memory_{": 7579,
    "$$Memory_{KV": 7580,
    "$$Memory_{KV}</w>": 7581,
    "n_{layers}</w>": 7582,
    "n_{heads}</w>": 7583,
    "d_{head}</w>": 7584,
    "P$$</w>": 7585,
    "$2$</w>": 7586,
    "accounts</w>": 7587,
    "(Ke": 7588,
    "(Key</w>": 7589,
    "Valu": 7590,
    "Value).</w>": 7591,
    "$n_{layers": 7592,
    "$n_{layers}$</w>": 7593,
    "transformer</w>": 7594,
    "layers.</w>": 7595,
    "$n_{heads": 7596,
    "$n_{heads}$</w>": 7597,
    "heads.</w>": 7598,
    "$d_{head": 7599,
    "$d_{head}$</w>": 7600,
    "dimension</w>": 7601,
    "$L$</w>": 7602,
    "(context</w>": 7603,
    "window).</w>": 7604,
    "$b": 7605,
    "$b$</w>": 7606,
    "(con": 7607,
    "(concurrent</w>": 7608,
    "requests": 7609,
    "requests).</w>": 7610,
    "$P": 7611,
    "$P$</w>": 7612,
    "byte-": 7613,
    "byte-size</w>": 7614,
    "bytes</w>": 7615,
    "FP": 7616,
    "FP16</w>": 7617,
    "BF16": 7618,
    "BF16).</w>": 7619,
    "scale,</w>": 7620,
    "variab": 7621,
    "variables</w>": 7622,
    "compound</w>": 7623,
    "drastically.</w>": 7624,
    "128": 7625,
    "128,00": 7626,
    "128,000": 7627,
    "128,000-": 7628,
    "128,000-token</w>": 7629,
    "70-b": 7630,
    "70-billi": 7631,
    "70-billion</w>": 7632,
    "parameter</w>": 7633,
    "Lla": 7634,
    "Llama</w>": 7635,
    "3.1-": 7636,
    "3.1-70": 7637,
    "3.1-70B": 7638,
    "3.1-70B)</w>": 7639,
    "consumes</w>": 7640,
    "approximately</w>": 7641,
    "Gigaby": 7642,
    "Gigabytes</w>": 7643,
    "High": 7644,
    "High</w>": 7645,
    "Band": 7646,
    "Bandwidth</w>": 7647,
    "(HBM)</w>": 7648,
    "sole": 7649,
    "solely</w>": 7650,
    "2.2</w>": 7651,
    "Catastroph": 7652,
    "Catastrophe</w>": 7653,
    "Probabili": 7654,
    "Probabilistic</w>": 7655,
    "Walking</w>": 7656,
    "deploy</w>": 7657,
    "engage</w>": 7658,
    "iterative": 7659,
    "iterative,</w>": 7660,
    "multi-t": 7661,
    "multi-turn</w>": 7662,
    "loops.</w>": 7663,
    "frameworks,</w>": 7664,
    "evaluates</w>": 7665,
    "follow,</w>": 7666,
    "appends</w>": 7667,
    "previous</w>": 7668,
    "trace</w>": 7669,
    "cache,</w>": 7670,
    "continuously.</w>": 7671,
    "queries,</w>": 7672,
    "moderate</w>": 7673,
    "accuracy</w>": 7674,
    "extend</w>": 7675,
    "well</w>": 7676,
    "40,000</w>": 7677,
    "commerci": 7678,
    "commercial</w>": 7679,
    "cost</w>": 7680,
    "upward</w>": 7681,
    "$3.": 7682,
    "$3.00": 7683,
    "$3.00,</w>": 7684,
    "single": 7685,
    "single-": 7686,
    "single-agent</w>": 7687,
    "economically</w>": 7688,
    "infea": 7689,
    "infeasible</w>": 7690,
    "high-v": 7691,
    "high-vol": 7692,
    "high-volum": 7693,
    "high-volume</w>": 7694,
    "applications.</w>": 7695,
    "grows,</w>": 7696,
    "HBM": 7697,
    "HBM.</w>": 7698,
    "breached,</w>": 7699,
    "vLLM</w>": 7700,
    "Tens": 7701,
    "Tensor": 7702,
    "TensorR": 7703,
    "TensorRT": 7704,
    "TensorRT-": 7705,
    "TensorRT-LLM": 7706,
    "TensorRT-LLM)</w>": 7707,
    "degrad": 7708,
    "degraded</w>": 7709,
    "state.</w>": 7710,
    "either:</w>": 7711,
    "Evic": 7712,
    "Evict</w>": 7713,
    "Cache:</w>": 7714,
    "Uti": 7715,
    "Utiliz": 7716,
    "Utilizing</w>": 7717,
    "LR": 7718,
    "LRU": 7719,
    "LRU</w>": 7720,
    "(Least</w>": 7721,
    "Recently</w>": 7722,
    "Used)</w>": 7723,
    "Heav": 7724,
    "Heavy</w>": 7725,
    "Hit": 7726,
    "Hitter</w>": 7727,
    "Orac": 7728,
    "Oracles</w>": 7729,
    "(H2": 7730,
    "(H2O": 7731,
    "(H2O)</w>": 7732,
    "drop</w>": 7733,
    "later,</w>": 7734,
    "incur": 7735,
    "incurs</w>": 7736,
    "spik": 7737,
    "spikes</w>": 7738,
    "recompute</w>": 7739,
    "prefil": 7740,
    "prefill.</w>": 7741,
    "Ca": 7742,
    "Cap</w>": 7743,
    "Window:</w>": 7744,
    "Artifici": 7745,
    "Artificially</w>": 7746,
    "truncating</w>": 7747,
    "hallucinations</w>": 7748,
    "Off": 7749,
    "Offload</w>": 7750,
    "Host</w>": 7751,
    "Memory:</w>": 7752,
    "Paging</w>": 7753,
    "PCIe/": 7754,
    "PCIe/CXL</w>": 7755,
    "NVM": 7756,
    "NVMe</w>": 7757,
    "storag": 7758,
    "storage.</w>": 7759,
    "interconnects</w>": 7760,
    "Expres": 7761,
    "Express</w>": 7762,
    "Link</w>": 7763,
    "(CX": 7764,
    "(CXL)</w>": 7765,
    "miti": 7766,
    "mitigate</w>": 7767,
    "offload": 7768,
    "offloading,</w>": 7769,
    "multi-g": 7770,
    "multi-gigaby": 7771,
    "multi-gigabyte</w>": 7772,
    "forth</w>": 7773,
    "host</w>": 7774,
    "devic": 7775,
    "device</w>": 7776,
    "HB": 7777,
    "HBM</w>": 7778,
    "speed": 7779,
    "speeds.</w>": 7780,
    "2.3</w>": 7781,
    "Algorithm": 7782,
    "Algorithmic</w>": 7783,
    "Bypass</w>": 7784,
    "larger</w>": 7785,
    "GPUs,</w>": 7786,
    "policies,</w>": 7787,
    "faster</w>": 7788,
    "PCIe</w>": 7789,
    "lan": 7790,
    "lanes.</w>": 7791,
    "bypass:</w>": 7792,
    "demo": 7793,
    "demoting</w>": 7794,
    "\"pathfinding</w>": 7795,
    "engine\"</w>": 7796,
    "\"synthesis</w>": 7797,
    "engine\".</w>": 7798,
    "mi": 7799,
    "migra": 7800,
    "migrating</w>": 7801,
    "memory,</w>": 7802,
    "circumvents</w>": 7803,
    "decod": 7804,
    "decoding</w>": 7805,
    "pip": 7806,
    "pipeline</w>": 7807,
    "construction,</w>": 7808,
    "aut": 7809,
    "auton": 7810,
    "autonom": 7811,
    "autonomously.</w>": 7812,
    "delivers</w>": 7813,
    "single,</w>": 7814,
    "compressed,</w>": 7815,
    "relevance-": 7816,
    "relevance-maxim": 7817,
    "relevance-maximized</w>": 7818,
    "integrity,</w>": 7819,
    "slas": 7820,
    "slash": 7821,
    "slashing</w>": 7822,
    "increasing</w>": 7823,
    "exponentially.</w>": 7824,
    "Substra": 7825,
    "Substrate": 7826,
    "Substrate:</w>": 7827,
    "seamless</w>": 7828,
    "interplay</w>": 7829,
    "mathematics.</w>": 7830,
    "external</w>": 7831,
    "calls,</w>": 7832,
    "3.1</w>": 7833,
    "(FAISS)</w>": 7834,
    "Writ": 7835,
    "Writt": 7836,
    "Written</w>": 7837,
    "wra": 7838,
    "wrapp": 7839,
    "wrappers,</w>": 7840,
    "billi": 7841,
    "billions</w>": 7842,
    "serves</w>": 7843,
    "entry</w>": 7844,
    "point,</w>": 7845,
    "\"Semantic</w>": 7846,
    "Discovery": 7847,
    "Discovery.\"</w>": 7848,
    "subm": 7849,
    "submits</w>": 7850,
    "passed</w>": 7851,
    "sentence-transformers</w>": 7852,
    "text-embedd": 7853,
    "text-embedding-": 7854,
    "text-embedding-3-": 7855,
    "text-embedding-3-larg": 7856,
    "text-embedding-3-large": 7857,
    "text-embedding-3-large),</w>": 7858,
    "space.</w>": 7859,
    "scan": 7860,
    "scans</w>": 7861,
    "base</w>": 7862,
    "index</w>": 7863,
    "top-$k$</w>": 7864,
    "closest</w>": 7865,
    "vector.</w>": 7866,
    "metrics,</w>": 7867,
    "inner</w>": 7868,
    "L2-": 7869,
    "L2-normalized</w>": 7870,
    "vectors,</w>": 7871,
    "equiv": 7872,
    "equival": 7873,
    "equivalent</w>": 7874,
    "Similarity.</w>": 7875,
    "$\\mathbf{q": 7876,
    "$\\mathbf{q}$</w>": 7877,
    "$\\mathbf{d": 7878,
    "$\\mathbf{d}$</w>": 7879,
    "$$Cosine": 7880,
    "$$Cosine(": 7881,
    "$$Cosine(\\mathbf{q}": 7882,
    "$$Cosine(\\mathbf{q},</w>": 7883,
    "\\mathbf{d})</w>": 7884,
    "\\frac{\\mathbf{q": 7885,
    "\\frac{\\mathbf{q}</w>": 7886,
    "\\mathbf{d}}{": 7887,
    "\\mathbf{d}}{\\|": 7888,
    "\\mathbf{d}}{\\|\\mathbf{q}": 7889,
    "\\mathbf{d}}{\\|\\mathbf{q}\\": 7890,
    "\\mathbf{d}}{\\|\\mathbf{q}\\|</w>": 7891,
    "\\|\\mathbf{d}": 7892,
    "\\|\\mathbf{d}\\|": 7893,
    "\\|\\mathbf{d}\\|}$$</w>": 7894,
    "$k$</w>": 7895,
    "\"anchor": 7896,
    "\"anchors.\"</w>": 7897,
    "exhibit</w>": 7898,
    "overlap</w>": 7899,
    "intent.</w>": 7900,
    "flat,</w>": 7901,
    "index.</w>": 7902,
    "understands</w>": 7903,
    "possesses</w>": 7904,
    "nor</w>": 7905,
    "discover</w>": 7906,
    "C—a</w>": 7907,
    "connecting</w>": 7908,
    "lack</w>": 7909,
    "resolving</w>": 7910,
    "link.</w>": 7911,
    "3.2</w>": 7912,
    "Model": 7913,
    "Modeling:</w>": 7914,
    "aug": 7915,
    "augment</w>": 7916,
    "transitions</w>": 7917,
    "comprehensive</w>": 7918,
    "creation,</w>": 7919,
    "manip": 7920,
    "manipula": 7921,
    "manipulation,</w>": 7922,
    "stud": 7923,
    "study</w>": 7924,
    "dynamics</w>": 7925,
    "networks.</w>": 7926,
    "avoidance</w>": 7927,
    "millions</w>": 7928,
    "prohi": 7929,
    "prohibi": 7930,
    "prohibitive</w>": 7931,
    "dynamically</w>": 7932,
    "Seam.\"</w>": 7933,
    "lifes": 7934,
    "lifesp": 7935,
    "lifespan</w>": 7936,
    "constrained</w>": 7937,
    "traversal—": 7938,
    "traversal—typically</w>": 7939,
    "Bread": 7940,
    "Breadth": 7941,
    "Breadth-First</w>": 7942,
    "(BF": 7943,
    "(BFS": 7944,
    "(BFS)—": 7945,
    "(BFS)—out": 7946,
    "(BFS)—outward</w>": 7947,
    "predefined</w>": 7948,
    "(number</w>": 7949,
    "hops,</w>": 7950,
    "$N$": 7951,
    "$N$).</w>": 7952,
    "ego-": 7953,
    "ego-graphs</w>": 7954,
    "composes</w>": 7955,
    "unif": 7956,
    "unifi": 7957,
    "unified</w>": 7958,
    "subgraph.</w>": 7959,
    "(nx.Graph()</w>": 7960,
    "nx.DiGraph(": 7961,
    "nx.DiGraph()": 7962,
    "nx.DiGraph()).</w>": 7963,
    "RAG,</w>": 7964,
    "directionality</w>": 7965,
    "\"Comp": 7966,
    "\"Company</w>": 7967,
    "X\"</w>": 7968,
    "owns</w>": 7969,
    "\"Sub": 7970,
    "\"Subsi": 7971,
    "\"Subsidi": 7972,
    "\"Subsidiary</w>": 7973,
    "Y\")</w>": 7974,
    "read,</w>": 7975,
    "restrictive</w>": 7976,
    "allow</w>": 7977,
    "proximity</w>": 7978,
    "regard": 7979,
    "regardl": 7980,
    "regardless</w>": 7981,
    "onto": 7982,
    "ontological</w>": 7983,
    "direction,</w>": 7984,
    "latent</w>": 7985,
    "bidirectional</w>": 7986,
    "dependencies</w>": 7987,
    "fully</w>": 7988,
    "explored.</w>": 7989,
    "25</w>": 7990,
    "isol": 7991,
    "isolating</w>": 7992,
    "solves</w>": 7993,
    "\"Static</w>": 7994,
    "Fall": 7995,
    "Fallac": 7996,
    "Fallacy": 7997,
    "Fallacy\".</w>": 7998,
    "rely</w>": 7999,
    "rigid</w>": 8000,
    "transition</w>": 8001,
    "probabiliti": 8002,
    "probabilities": 8003,
    "probabilities;</w>": 8004,
    "query-": 8005,
    "query-depend": 8006,
    "query-dependent": 8007,
    "query-dependent.</w>": 8008,
    "adj": 8009,
    "adjac": 8010,
    "adjacent</w>": 8011,
    "anchors,</w>": 8012,
    "establishing</w>": 8013,
    "focused</w>": 8014,
    "microsecond": 8015,
    "microseconds.</w>": 8016,
    "Dis": 8017,
    "Disparate</w>": 8018,
    "Dimensions</w>": 8019,
    "Within</w>": 8020,
    "determine</w>": 8021,
    "ultim": 8022,
    "ultimate</w>": 8023,
    "evaluation</w>": 8024,
    "signals:</w>": 8025,
    "($T$": 8026,
    "($T$):</w>": 8027,
    "node's</w>": 8028,
    "20</w>": 8029,
    "($S$):</w>": 8030,
    "4.1</w>": 8031,
    "Mechanics</w>": 8032,
    "Isola": 8033,
    "Isolated</w>": 8034,
    "Subgraphs</w>": 8035,
    "PageRank": 8036,
    "PageRank,</w>": 8037,
    "originally</w>": 8038,
    "web</w>": 8039,
    "pages,</w>": 8040,
    "measures</w>": 8041,
    "transitive</w>": 8042,
    "influ": 8043,
    "influence</w>": 8044,
    "quantity</w>": 8045,
    "quality</w>": 8046,
    "incoming</w>": 8047,
    "link": 8048,
    "links.</w>": 8049,
    "fundamental</w>": 8050,
    "assu": 8051,
    "assump": 8052,
    "assumption</w>": 8053,
    "$u$</w>": 8054,
    "$$PR": 8055,
    "$$PR(u": 8056,
    "$$PR(u)</w>": 8057,
    "\\frac{1-d": 8058,
    "\\frac{1-d}{": 8059,
    "\\frac{1-d}{N": 8060,
    "\\frac{1-d}{N}</w>": 8061,
    "\\sum": 8062,
    "\\sum_{": 8063,
    "\\sum_{v": 8064,
    "\\sum_{v</w>": 8065,
    "\\in</w>": 8066,
    "B(u)": 8067,
    "B(u)}</w>": 8068,
    "\\frac{PR": 8069,
    "\\frac{PR(v)": 8070,
    "\\frac{PR(v)}{": 8071,
    "\\frac{PR(v)}{L": 8072,
    "\\frac{PR(v)}{L(v)": 8073,
    "\\frac{PR(v)}{L(v)}$$</w>": 8074,
    "$N$</w>": 8075,
    "graph.</w>": 8076,
    "$d": 8077,
    "$d$</w>": 8078,
    "(tra": 8079,
    "(tradition": 8080,
    "(traditionally</w>": 8081,
    "0.85,</w>": 8082,
    "modeling</w>": 8083,
    "sur": 8084,
    "surf": 8085,
    "surfer</w>": 8086,
    "clic": 8087,
    "clicking</w>": 8088,
    "jumping</w>": 8089,
    "node).</w>": 8090,
    "$B(u": 8091,
    "$B(u)$</w>": 8092,
    "linking</w>": 8093,
    "$u$.</w>": 8094,
    "$L(v": 8095,
    "$L(v)$</w>": 8096,
    "outb": 8097,
    "outbound</w>": 8098,
    "effective</w>": 8099,
    "identif": 8100,
    "identifying</w>": 8101,
    "hub": 8102,
    "hubs</w>": 8103,
    "entities,</w>": 8104,
    "present</w>": 8105,
    "chal": 8106,
    "challeng": 8107,
    "challenge</w>": 8108,
    "scoring.</w>": 8109,
    "output": 8110,
    "outputs</w>": 8111,
    "equals</w>": 8112,
    "28</w>": 8113,
    "containing</w>": 8114,
    "average</w>": 8115,
    "$0.0": 8116,
    "$0.002": 8117,
    "$0.002$.</w>": 8118,
    "sensi": 8119,
    "sensitive</w>": 8120,
    "isolation": 8121,
    "isolation;</w>": 8122,
    "small,</w>": 8123,
    "tightly</w>": 8124,
    "cou": 8125,
    "coup": 8126,
    "coupled</w>": 8127,
    "compressed</w>": 8128,
    "bands,</w>": 8129,
    "particul": 8130,
    "particular": 8131,
    "particularly</w>": 8132,
    "tuned</w>": 8133,
    "topologies.</w>": 8134,
    "29</w>": 8135,
    "4.2</w>": 8136,
    "Nec": 8137,
    "Necess": 8138,
    "Necessity</w>": 8139,
    "Conver": 8140,
    "Conversel": 8141,
    "Conversely,</w>": 8142,
    "0.3</w>": 8143,
    "0.9</w>": 8144,
    "spaces.</w>": 8145,
    "At": 8146,
    "Attempting</w>": 8147,
    "fuse</w>": 8148,
    "addi": 8149,
    "addition</w>": 8150,
    "invalid": 8151,
    "invalid.</w>": 8152,
    "curv": 8153,
    "curves,</w>": 8154,
    "larger-": 8155,
    "larger-magnitude</w>": 8156,
    "($T": 8157,
    "($T$)</w>": 8158,
    "dw": 8159,
    "dwar": 8160,
    "dwarf</w>": 8161,
    "micro-f": 8162,
    "micro-fra": 8163,
    "micro-fraction": 8164,
    "micro-fractional</w>": 8165,
    "($S$).</w>": 8166,
    "$T</w>": 8167,
    "0.82$</w>": 8168,
    "$S</w>": 8169,
    "0.004": 8170,
    "0.004$,</w>": 8171,
    "rever": 8172,
    "reverting</w>": 8173,
    "requirements.</w>": 8174,
    "conflict": 8175,
    "conflict,</w>": 8176,
    "techni": 8177,
    "technique</w>": 8178,
    "rescal": 8179,
    "rescales</w>": 8180,
    "proportionate": 8181,
    "proportionately</w>": 8182,
    "bounding</w>": 8183,
    "box": 8184,
    "box,</w>": 8185,
    "eliminating</w>": 8186,
    "magnitud": 8187,
    "magnitudes.</w>": 8188,
    "formul": 8189,
    "formula</w>": 8190,
    "independently</w>": 8191
  },
  "merges": [
    [
      "e",
      "</w>"
    ],
    [
      "s",
      "</w>"
    ],
    [
      "i",
      "n"
    ],
    [
      "t",
      "h"
    ],
    [
      "e",
      "n"
    ],
    [
      "e",
      "r"
    ],
    [
      "t",
      "</w>"
    ],
    [
      "a",
      "l"
    ],
    [
      "o",
      "n"
    ],
    [
      "o",
      "r"
    ],
    [
      "t",
      "i"
    ],
    [
      "a",
      "n"
    ],
    [
      "d",
      "</w>"
    ],
    [
      ",",
      "</w>"
    ],
    [
      ".",
      "</w>"
    ],
    [
      "y",
      "</w>"
    ],
    [
      "th",
      "e</w>"
    ],
    [
      "r",
      "a"
    ],
    [
      "a",
      "r"
    ],
    [
      "in",
      "g"
    ],
    [
      "e",
      "s"
    ],
    [
      "t",
      "e"
    ],
    [
      "t",
      "o"
    ],
    [
      "r",
      "e"
    ],
    [
      "c",
      "h"
    ],
    [
      "ing",
      "</w>"
    ],
    [
      "s",
      "e"
    ],
    [
      "=",
      "="
    ],
    [
      "u",
      "r"
    ],
    [
      "ti",
      "on"
    ],
    [
      "a",
      "</w>"
    ],
    [
      "i",
      "t"
    ],
    [
      ":",
      "</w>"
    ],
    [
      "o",
      "d"
    ],
    [
      "al",
      "</w>"
    ],
    [
      "s",
      "t"
    ],
    [
      "*",
      "*"
    ],
    [
      "o",
      "m"
    ],
    [
      "i",
      "s</w>"
    ],
    [
      "a",
      "t"
    ],
    [
      "c",
      "t"
    ],
    [
      "f",
      "</w>"
    ],
    [
      ")",
      "</w>"
    ],
    [
      "T",
      "h"
    ],
    [
      "e",
      "s</w>"
    ],
    [
      "o",
      "u"
    ],
    [
      "to",
      "</w>"
    ],
    [
      "r",
      "i"
    ],
    [
      "l",
      "y</w>"
    ],
    [
      "-",
      "-"
    ],
    [
      "p",
      "h"
    ],
    [
      "or",
      "</w>"
    ],
    [
      "s",
      "i"
    ],
    [
      "e",
      "a"
    ],
    [
      "a",
      "c"
    ],
    [
      "l",
      "o"
    ],
    [
      "an",
      "d</w>"
    ],
    [
      "ti",
      "c"
    ],
    [
      "l",
      "e"
    ],
    [
      "er",
      "</w>"
    ],
    [
      "m",
      "a"
    ],
    [
      "l",
      "i"
    ],
    [
      "e",
      "t"
    ],
    [
      "en",
      "c"
    ],
    [
      "c",
      "on"
    ],
    [
      "o",
      "f</w>"
    ],
    [
      "g",
      "ra"
    ],
    [
      "p",
      "r"
    ],
    [
      "a",
      "s"
    ],
    [
      "en",
      "t"
    ],
    [
      "ar",
      "ch"
    ],
    [
      "==",
      "=="
    ],
    [
      "tion",
      "</w>"
    ],
    [
      "#",
      "</w>"
    ],
    [
      "g",
      "h"
    ],
    [
      "e",
      "d</w>"
    ],
    [
      "e",
      "x"
    ],
    [
      "i",
      "l"
    ],
    [
      "u",
      "n"
    ],
    [
      "e",
      "v"
    ],
    [
      "`",
      "`"
    ],
    [
      "s",
      "c"
    ],
    [
      "o",
      "w"
    ],
    [
      "n",
      "od"
    ],
    [
      "*",
      "</w>"
    ],
    [
      "Th",
      "e</w>"
    ],
    [
      "-",
      "</w>"
    ],
    [
      "d",
      "i"
    ],
    [
      "m",
      "</w>"
    ],
    [
      "a",
      "g"
    ],
    [
      "c",
      "om"
    ],
    [
      "i",
      "th"
    ],
    [
      "=",
      "</w>"
    ],
    [
      "v",
      "er"
    ],
    [
      "on",
      "</w>"
    ],
    [
      "i",
      "c"
    ],
    [
      "in",
      "</w>"
    ],
    [
      "e",
      "d"
    ],
    [
      "i",
      "d"
    ],
    [
      "r",
      "u"
    ],
    [
      "e",
      "c"
    ],
    [
      "k",
      "</w>"
    ],
    [
      "a",
      "t</w>"
    ],
    [
      "k",
      "en"
    ],
    [
      "l",
      "a"
    ],
    [
      "it",
      "y</w>"
    ],
    [
      "m",
      "an"
    ],
    [
      "tic",
      "</w>"
    ],
    [
      "i",
      "gh"
    ],
    [
      "ct",
      "ur"
    ],
    [
      "t",
      "ra"
    ],
    [
      "i",
      "s"
    ],
    [
      "to",
      "ken"
    ],
    [
      "G",
      "ra"
    ],
    [
      "gra",
      "ph"
    ],
    [
      "sc",
      "or"
    ],
    [
      "u",
      "s"
    ],
    [
      "f",
      "or</w>"
    ],
    [
      "q",
      "u"
    ],
    [
      "m",
      "p"
    ],
    [
      "arch",
      "</w>"
    ],
    [
      "en",
      "t</w>"
    ],
    [
      "--",
      "-</w>"
    ],
    [
      "w",
      "ith"
    ],
    [
      "o",
      "l"
    ],
    [
      "i",
      "t</w>"
    ],
    [
      "u",
      "l"
    ],
    [
      "i",
      "z"
    ],
    [
      "`",
      "</w>"
    ],
    [
      "**",
      "</w>"
    ],
    [
      "te",
      "x"
    ],
    [
      "o",
      "p"
    ],
    [
      "n",
      "e"
    ],
    [
      "o",
      "ur"
    ],
    [
      "l",
      "</w>"
    ],
    [
      "se",
      "d</w>"
    ],
    [
      "ru",
      "ctur"
    ],
    [
      "en",
      "</w>"
    ],
    [
      "an",
      "</w>"
    ],
    [
      "a",
      "b"
    ],
    [
      "a",
      "s</w>"
    ],
    [
      "v",
      "e</w>"
    ],
    [
      "c",
      "es"
    ],
    [
      "R",
      "A"
    ],
    [
      ".",
      "."
    ],
    [
      "h",
      "ea"
    ],
    [
      "\"",
      "</w>"
    ],
    [
      "enc",
      "e</w>"
    ],
    [
      "o",
      "s"
    ],
    [
      "t",
      "t"
    ],
    [
      "w",
      "h"
    ],
    [
      "0",
      "2"
    ],
    [
      "our",
      "</w>"
    ],
    [
      "s",
      "te"
    ],
    [
      "a",
      "ch"
    ],
    [
      "v",
      "e"
    ],
    [
      "``",
      "`</w>"
    ],
    [
      "te",
      "d</w>"
    ],
    [
      "d",
      "e"
    ],
    [
      "====",
      "===="
    ],
    [
      "ou",
      "</w>"
    ],
    [
      "od",
      "e"
    ],
    [
      "p",
      "</w>"
    ],
    [
      "L",
      "L"
    ],
    [
      "M",
      "</w>"
    ],
    [
      "w",
      "al"
    ],
    [
      "2",
      "02"
    ],
    [
      "al",
      "ly</w>"
    ],
    [
      "l",
      "e</w>"
    ],
    [
      "p",
      "s"
    ],
    [
      "om",
      "p"
    ],
    [
      "e",
      "m"
    ],
    [
      "202",
      "6"
    ],
    [
      "I",
      "n"
    ],
    [
      "in",
      "t"
    ],
    [
      "d",
      "at"
    ],
    [
      "v",
      "i"
    ],
    [
      "th",
      "e"
    ],
    [
      "Gra",
      "ph"
    ],
    [
      "a",
      "tion"
    ],
    [
      "s",
      "u"
    ],
    [
      "o",
      "</w>"
    ],
    [
      "a",
      "tion</w>"
    ],
    [
      "ces",
      "sed</w>"
    ],
    [
      "a",
      "m"
    ],
    [
      "it",
      "y"
    ],
    [
      "8",
      ",</w>"
    ],
    [
      "tex",
      "t</w>"
    ],
    [
      "ructur",
      "al</w>"
    ],
    [
      "ac",
      "cessed</w>"
    ],
    [
      "M",
      "arch</w>"
    ],
    [
      "2026",
      ",</w>"
    ],
    [
      "h",
      "tt"
    ],
    [
      "htt",
      "ps"
    ],
    [
      "https",
      ":"
    ],
    [
      "https:",
      "/"
    ],
    [
      "https:/",
      "/"
    ],
    [
      "f",
      "or"
    ],
    [
      "c",
      "al"
    ],
    [
      "d",
      "g"
    ],
    [
      "l",
      "u"
    ],
    [
      "with",
      "</w>"
    ],
    [
      "0",
      "."
    ],
    [
      "Th",
      "is</w>"
    ],
    [
      "id",
      "ence</w>"
    ],
    [
      "graph",
      "</w>"
    ],
    [
      "$",
      "</w>"
    ],
    [
      "se",
      "l"
    ],
    [
      "lo",
      "g"
    ],
    [
      "man",
      "tic</w>"
    ],
    [
      "wal",
      "k"
    ],
    [
      "m",
      "in"
    ],
    [
      "s",
      "y"
    ],
    [
      "u",
      "t"
    ],
    [
      "nod",
      "e</w>"
    ],
    [
      "pr",
      "o"
    ],
    [
      "th",
      "at</w>"
    ],
    [
      "at",
      "e</w>"
    ],
    [
      "s",
      ",</w>"
    ],
    [
      "i",
      "m"
    ],
    [
      "i",
      "f"
    ],
    [
      "S",
      "t"
    ],
    [
      "W",
      "h"
    ],
    [
      "n",
      "</w>"
    ],
    [
      "e",
      ".</w>"
    ],
    [
      "com",
      "p"
    ],
    [
      "an",
      "d"
    ],
    [
      "y",
      "th"
    ],
    [
      "S",
      "ea"
    ],
    [
      "in",
      "d"
    ],
    [
      "A",
      "I"
    ],
    [
      "s",
      ".</w>"
    ],
    [
      "t",
      "er"
    ],
    [
      "p",
      "p"
    ],
    [
      "gra",
      "v"
    ],
    [
      "ow",
      "</w>"
    ],
    [
      "LL",
      "M</w>"
    ],
    [
      "al",
      "iz"
    ],
    [
      "ver",
      "s"
    ],
    [
      "u",
      "m"
    ],
    [
      "si",
      "on</w>"
    ],
    [
      "c",
      "tion</w>"
    ],
    [
      "sel",
      "f"
    ],
    [
      "pr",
      "omp"
    ],
    [
      "ar",
      "e</w>"
    ],
    [
      "b",
      "u"
    ],
    [
      "f",
      "r"
    ],
    [
      "S",
      "</w>"
    ],
    [
      "+",
      "</w>"
    ],
    [
      "0",
      "</w>"
    ],
    [
      "or",
      "e</w>"
    ],
    [
      "y",
      "ou</w>"
    ],
    [
      "en",
      "ti"
    ],
    [
      "w",
      "or"
    ],
    [
      "d",
      "o"
    ],
    [
      "y",
      "our</w>"
    ],
    [
      "sy",
      "ste"
    ],
    [
      "un",
      "k"
    ],
    [
      "K",
      "V"
    ],
    [
      "RA",
      "G"
    ],
    [
      "te",
      "s</w>"
    ],
    [
      "p",
      "er"
    ],
    [
      "h",
      "igh"
    ],
    [
      "h",
      "as"
    ],
    [
      "ou",
      "n"
    ],
    [
      "S",
      "e"
    ],
    [
      "x",
      "</w>"
    ],
    [
      "om",
      "</w>"
    ],
    [
      "a",
      "d"
    ],
    [
      "e",
      "_"
    ],
    [
      "y",
      ".</w>"
    ],
    [
      "w",
      "e"
    ],
    [
      "an",
      "c"
    ],
    [
      "P",
      "yth"
    ],
    [
      "ve",
      "ct"
    ],
    [
      "E",
      "x"
    ],
    [
      "M",
      "a"
    ],
    [
      "e",
      "-"
    ],
    [
      "ev",
      "idence</w>"
    ],
    [
      "a",
      "ct"
    ],
    [
      "p",
      "o"
    ],
    [
      "f",
      "in"
    ],
    [
      "i",
      "mp"
    ],
    [
      "c",
      "ur"
    ],
    [
      "f",
      "f"
    ],
    [
      "st",
      "ructural</w>"
    ],
    [
      "th",
      "is</w>"
    ],
    [
      "b",
      "et"
    ],
    [
      "i",
      "te"
    ],
    [
      "KV",
      "</w>"
    ],
    [
      "r",
      "es"
    ],
    [
      "tra",
      "vers"
    ],
    [
      "in",
      "to</w>"
    ],
    [
      "wor",
      "k"
    ],
    [
      ">",
      "</w>"
    ],
    [
      "self",
      "."
    ],
    [
      "s",
      "p"
    ],
    [
      "n",
      "ow"
    ],
    [
      "re",
      "t"
    ],
    [
      "c",
      "tion"
    ],
    [
      "is",
      "tic</w>"
    ],
    [
      "qu",
      "er"
    ],
    [
      "ex",
      "p"
    ],
    [
      "1",
      "</w>"
    ],
    [
      ".",
      "com"
    ],
    [
      ".com",
      "/"
    ],
    [
      "'",
      "s</w>"
    ],
    [
      "h",
      "a"
    ],
    [
      "1",
      ".</w>"
    ],
    [
      "2",
      ".</w>"
    ],
    [
      "fr",
      "om</w>"
    ],
    [
      "cur",
      "r"
    ],
    [
      "ri",
      "ev"
    ],
    [
      "od",
      "e</w>"
    ],
    [
      "em",
      "or"
    ],
    [
      "in",
      "e</w>"
    ],
    [
      "**",
      ".</w>"
    ],
    [
      "or",
      "m"
    ],
    [
      "s",
      "h"
    ],
    [
      "b",
      "a"
    ],
    [
      "y",
      ",</w>"
    ],
    [
      "en",
      "er"
    ],
    [
      "c",
      "ach"
    ],
    [
      "orm",
      "aliz"
    ],
    [
      "_",
      "scor"
    ],
    [
      "con",
      "text</w>"
    ],
    [
      "er",
      "e</w>"
    ],
    [
      "s",
      ":</w>"
    ],
    [
      "e",
      ",</w>"
    ],
    [
      "Sea",
      "m</w>"
    ],
    [
      "→",
      "</w>"
    ],
    [
      "w",
      "w"
    ],
    [
      "r",
      "an"
    ],
    [
      "i",
      "r"
    ],
    [
      "nod",
      "es</w>"
    ],
    [
      "I",
      "t</w>"
    ],
    [
      "ou",
      "gh"
    ],
    [
      "igh",
      "b"
    ],
    [
      "Gra",
      "v"
    ],
    [
      ")",
      ".</w>"
    ],
    [
      "A",
      "</w>"
    ],
    [
      "/",
      "</w>"
    ],
    [
      "e",
      "t</w>"
    ],
    [
      "il",
      "ar"
    ],
    [
      "ac",
      "k"
    ],
    [
      "ag",
      "e"
    ],
    [
      "2",
      "</w>"
    ],
    [
      "es",
      "t</w>"
    ],
    [
      "la",
      "y"
    ],
    [
      "dg",
      "e</w>"
    ],
    [
      "le",
      "v"
    ],
    [
      "ch",
      "</w>"
    ],
    [
      "en",
      "s"
    ],
    [
      "ne",
      "ighb"
    ],
    [
      "3",
      ".</w>"
    ],
    [
      "se",
      "mantic</w>"
    ],
    [
      "es",
      "sion</w>"
    ],
    [
      "in",
      "t</w>"
    ],
    [
      "ent",
      "_"
    ],
    [
      "et",
      "er"
    ],
    [
      "has",
      "h"
    ],
    [
      "st",
      "r"
    ],
    [
      "ar",
      "ra"
    ],
    [
[...]
